{"\u2581ide": 1872, "Fun": 3369, "\u2581awake": 20875, "<0x44>": 71, "\u4e4b": 29332, "\u2581items": 4907, "\u00ean": 26841, "\u2581outstanding": 17329, "\u30c1": 29973, "\u2581Mig": 17037, "\u2581\"*": 12406, "trim": 13484, "\u2581film": 2966, "\u2581educational": 14165, "odio": 26301, "lagen": 21463, "\u043a\u043e\u0439": 13108, "Topic": 25462, "DRV": 24664, "Keep": 24205, "ights": 3152, "\u2581hiding": 16622, "\u2581jeans": 21576, "\u044f\u0445": 19242, ")'": 24996, "\u2581f\u00e9vrier": 20905, "\u2581Aug": 3219, "\u2581Tob": 20479, "\u2581hr": 15384, "\u52d5": 29842, "<0x12>": 21, "\u2581methods": 5562, "\u2581USS": 22961, "\u2581badly": 15494, "Connect": 16644, "Three": 24851, "BB": 8923, "rcu": 28268, "\u2581lot": 2055, "\u2581props": 11177, "\u52a9": 30278, "annel": 2756, "expr": 9803, "\u2581scripts": 26304, "\u2581FOR": 6907, "\u2581gave": 3395, "managed": 27309, "\u963f": 30564, "\u03af": 29121, "\u2581again": 1076, "\u2581twist": 20746, "\u2581kne": 7770, "location": 2733, "\u2581succeed": 9481, "\u2581junto": 21396, "cept": 1358, "\u2581disaster": 17273, "\u2581fill": 5211, "\u2581Mercedes": 26501, "\u2581managed": 6900, "\u2581renown": 27556, "insula": 27155, "\u2581chick": 25424, "\u2581origin": 5016, "\u2581Court": 6924, "\u2581clin": 8837, "\u2581vamp": 21505, "\u2581restored": 21617, "Mac": 11483, "Band": 23852, "\u2581pir": 17368, "\u2581Fun": 6785, "\u2581Blue": 8836, "\u2581spine": 24496, "compute": 16753, "\u2581(!(": 14606, "\u2581lett": 9077, "\u2581filtered": 25028, "\u2581evaluated": 23001, "\u2581whom": 6105, "\u2581segments": 20105, "cery": 20322, "\uc635": 31629, "\u2581commun": 1960, "odge": 13167, "\u2581fort": 5922, "unknown": 16047, "\u2581constructed": 13379, "\u0434\u043d\u0430": 13373, "\u2581cuts": 15981, "asset": 17702, "rible": 7030, "\u2581plac": 20227, "\u2581stad": 13410, "stylesheet": 25984, "\u2581Cass": 13367, "\u2581Ital": 4503, "apon": 13181, "\u2581\u0440\u0443\u0441": 24379, "Symbol": 9996, "\u4ee3": 29314, "\u2581stayed": 10452, "awn": 11646, "itte": 26055, "\u2581\u0430\u043b\u044c": 20462, "logging": 18732, "emplates": 16171, "\u2581gorge": 18963, "\u2581restr": 6134, "ification": 2500, "complete": 11192, "\u2581Soft": 6001, "global": 5515, "\u0441\u0442\u0430\u0432\u0438": 16316, "Thread": 6237, "\u2581ministry": 23470, "\u2581basically": 10321, "\u2581structural": 21431, "makers": 22016, "jsp": 23559, "tikz": 23965, "\u2581\u043c\u0430\u044f": 25034, "olve": 5303, "\u91cf": 29195, ";": 28745, "\u2581logo": 16388, "uese": 23663, "oles": 4721, "-": 28733, "\u2581\u043c\u043e": 4025, "\u2581ii": 23302, "\u2581MI": 17808, "anz\u00f6s": 22979, "\u2581made": 1269, "\ud654": 29731, "\u3068": 29316, "\u7f3a": 31040, "\u2581life": 1411, "\u2581ref": 1792, "\u2581Sister": 21310, "egen": 5772, "IDs": 24029, "\u5de6": 29907, "Oh": 6155, "\u4e0a": 29054, "\u0150": 30265, "\u2581Roland": 28552, "(|": 18214, "\u2581individ": 3004, "\u2581village": 6435, "reno": 24968, "\u2581charming": 25444, "\u2581gev": 27070, "\u2581protocol": 10189, "Ob": 1445, "\u2581environments": 20031, "\u2581NEW": 24746, "CLUD": 16613, "boxes": 26498, "\u2581Nice": 22277, "olves": 18725, "borough": 23056, "\u5347": 30401, "\u2581kle": 14602, "minus": 15530, "\u2581singles": 16975, "\u2581founded": 11573, "\u0686": 30066, "mos": 7186, "clude": 12856, "\u2581steam": 15291, "EAR": 25557, "\u2581wyst": 23196, "Req": 16295, "Q": 28824, "\u2581yesterday": 12091, "\u2581grief": 20571, "\u2581Military": 19844, "\u2581expect": 1675, "\u2581poetry": 15891, "\u2581\u0446\u0438": 18950, "ln": 4778, "isy": 23444, "hf": 26990, "\u2581p\u00e9riode": 28546, "\u2581Diet": 17894, "\u2581ke": 945, "\u2581explos": 12693, "PL": 3898, "\u0435\u0440\u0435": 2850, "Java": 15473, "\u2581Ram": 8839, "xspace": 15372, "\u2581Module": 19694, "chr": 18853, "\u2581brings": 11164, "\u2581preserv": 16176, "\u2581PK": 28519, "\u2581Ohio": 13834, "IO": 4426, "Proof": 26855, "\u2581visiting": 13726, "bum": 3237, "\u2581poll": 8175, "bad": 11436, "\u2581Leb": 13304, "getInt": 27976, "Success": 11034, "\u2581Bureau": 18052, "\u2581Sports": 13184, "\u03a1": 30528, "Serialize": 23443, "demo": 25652, "\u2581l\u00e4": 23855, "adores": 10591, "\u9876": 30118, "\\+": 11100, "\u2581flaw": 22904, "\u5efa": 29193, "Plugin": 10443, "\u3060": 29883, "CT": 1386, "\u2581Tool": 12877, "Static": 13232, "\u2581clicked": 26399, "\u2581elle": 8273, "\u2581checks": 13804, "dz": 6936, "\u2581problem": 2700, "fields": 7434, "stick": 23277, "\u2581wasted": 26508, "nent": 21846, "ws": 6420, "\u0dca": 31004, "\u2581Regional": 18718, "\u2581Kirk": 21746, "Result": 2716, "\u2581deeper": 13551, "\u2581NFL": 17868, "\u00e1t": 4566, "\u2581colour": 11474, "\u2581aws": 20933, "invalid": 10702, "\u59d4": 31397, "take": 20985, "sf": 5784, "unicip": 6724, "\u2581tone": 10294, "\u2581Response": 12107, "\u305f": 29227, "*).": 12619, "arn": 1331, "\u2581Cort": 22949, "\u2581Since": 4577, "okrat": 27765, "ment": 466, "\u2581neighborhood": 10501, ".\"]": 28659, "\u517b": 31868, "dern": 22502, "map": 2022, "\u2581przed": 22749, "\u2581formats": 23468, "\u2581kol": 21772, "\u2581champ": 22942, "%.": 13210, "\ub41c": 29897, "usc": 15229, "kv": 23546, "\u0435\u0440": 1226, "\u2581Cond": 11884, "\u2581grupo": 18550, "provider": 14620, "tor": 6909, "buttons": 27269, "\u043f\u0440\u0438": 10804, "External": 17756, "TER": 4741, "\u2581Physical": 27134, "isation": 5463, "\u2581moral": 10986, "\u2581TX": 17679, "\u2581crowds": 26674, "\u2581\u043f\u0440\u0435\u0434\u0441\u0442\u0430\u0432": 18006, "Eng": 5871, "ij": 1230, "\u2581Listen": 26756, "igte": 23355, "\u2581magic": 9693, "\u2581charges": 11040, "\u2581gaming": 17767, "\u2581estimated": 11909, "\u2581\u041d\u0438": 11504, "\u2581mail": 9636, "\u2581Sam": 4157, "isto": 19074, "\u2581reviewed": 23282, "\u2581Similarly": 19190, "away": 12154, "struct": 1356, "\u2581\u00b7": 1766, "\u2581empty": 4606, "\u2581\u0443\u043d\u0438": 18914, "\u2581END": 21288, "Password": 9414, "onomy": 15631, "ulf": 12981, "\u2581rat": 6172, "\u2581tant": 16110, "\u519c": 31538, "\u2581$,": 28542, "\u2581legs": 7969, "ktet": 12054, "\u00e8rent": 24087, "))))": 22318, "\u2581Mama": 25579, "Ge": 5909, "\u2581packing": 26894, "ente": 3639, "ken": 2314, "UX": 12641, "\u0652": 29655, "\u2581hans": 24401, "\u2581\u00e9taient": 24572, "\u2581att": 998, "\u2581seriously": 10160, "](": 5121, "expand": 20994, "\u2581instanceof": 9839, "\u8499": 31631, "pipeline": 22365, "\u2581safely": 16367, "\u2581finish": 7446, "eves": 22915, "\u2581optimization": 18586, "\u2581Copyright": 5259, "\u798f": 30511, "ako": 7050, "\u2581frozen": 15199, "utenant": 12610, ">)": 12970, "\u2581dragged": 20212, "\u2581Sus": 9167, "\u2581\u043e\u043d\u0438": 26150, "<0xC2>": 197, "\u2581prints": 25831, "\u2581Desc": 18869, "\u2581fish": 8006, "\u2581seu": 7987, "\u53f2": 30214, "\u2581\",": 7717, "\u0446\u044e": 23997, "javax": 27184, "Xamarin": 27206, "\u2581island": 8919, "\u2581Shah": 23452, "\u2581occasionally": 16045, "rules": 15342, "\u2581constitutional": 25913, "\u2581plot": 9242, "\u2581br": 1170, "\u2581rus": 22300, "\u2581Well": 4673, "\u2581ampl": 16401, "\u2581anime": 25708, "\u2581backpack": 28217, "\u2581\u043a\u043e\u0442\u043e\u0440\u044b\u0439": 19676, "yle": 1487, "\u2581Bew": 27459, "orable": 26274, "same": 21317, "psz": 28701, "\u2581\u043d\u0435\u0437\u0430": 27476, "\u2581penis": 23735, "iqu": 2741, "Fore": 13275, "Getter": 26270, "\u2581Alex": 5013, "\u8ff0": 29769, "\u2581victim": 12354, "\u76ae": 31279, "Navigation": 17896, "lets": 7835, "\u0431\u043e\u0440\u0430": 27788, "soap": 19516, "\u2581literature": 11354, "\u2581Bryan": 27919, "\u2581stru": 4500, "isValid": 28390, "Message": 2649, "<0x6A>": 109, "\u5e72": 30901, "\u2581${": 6051, "\u2581Plus": 11230, "soc": 10267, "cpp": 5222, "\u2581Mother": 12387, "\u2581commands": 15380, "\u2581relig": 4422, "\u0433\u043e": 803, "udge": 24763, "\u0436": 28836, "\u2581anni": 13512, "\u2581operate": 13858, "ischer": 6283, "Cursor": 14058, "_[": 19000, "\u2581\u043c\u043e\u043b\u043e": 23529, "\u2581Priv": 15650, "\u2581\u0441\u0442\u0430\u043d\u043e\u0432": 16141, "emat": 16633, "vp": 15968, "\u2581shots": 14487, "YP": 26058, "\u2581approached": 14709, "DTO": 17549, "\u2581unfortunately": 22014, "\u2581macro": 19109, "\u2581\u2581": 259, "\u2581choices": 10475, "\u2581PER": 22015, "\u2581minut": 28270, "empt": 3310, "\u2581\u0445\u0430\u0440\u0430\u043a": 26209, "\u2581benefit": 7949, "formation": 1517, ">>>": 21705, "\u2581Lit": 25003, "\u2581KIND": 11067, "member": 9978, "Ill": 15497, "\u2581Stone": 11775, "\u2581Comm": 3008, "\u1014": 31226, "ys": 846, "\u2581\"\",": 7889, "\"><?": 26109, "\u2581defines": 18791, "\u2581alpha": 15927, "\u2581king": 6779, "\u2581Mock": 16093, "\u2581shape": 5843, "\u2581Alfred": 16304, "riend": 1513, "atal": 3196, "\u2581&=": 6501, "\u2581Alexand": 18275, "\u2581Verm": 19191, "\u2581Fro": 18760, "parts": 14565, "OPT": 17954, "proxy": 13764, "\u2581gard": 13837, "Handler": 4189, "gorith": 5360, "\u2581Widget": 27226, "Setup": 17707, "\u2581briefly": 15643, "\u2581rewards": 22989, "\u2581};": 2337, "\u008c": 30536, "\u2581rag": 13017, "\u2581pulse": 20984, "\u516c": 29443, "\u2581Fill": 25518, "\u2581Mau": 27804, "\u2581IBM": 25709, "\u0440\u043e\u0431": 19080, "zm": 22432, "\u2581shall": 4579, "\u2581joy": 10186, "\u2581View": 7022, "PP": 8415, "\u2581locale": 17050, "\u2581Drag": 23185, "\u2581Storm": 21281, "intern": 14705, "\u2581subscription": 15400, "\u2581Grab": 23924, "\u2581sp": 668, "Count": 3072, "\u2581Ele": 12450, "\u2581\u00dcber": 19265, "\u2581diffusion": 25236, "aceut": 24834, "S": 28735, "odot": 24075, "\u4f3c": 30694, "\u2581treats": 27378, "\u2581jag": 15584, "endance": 15292, "\u2581BM": 20179, "\u2581Alabama": 20339, "\u00f4le": 18606, "\u0441\u0442\u0432\u0430": 6238, "hos": 22848, "\u2581would": 682, "kernel": 11694, "\u6cc9": 31271, "\u2581officially": 16783, "\u2581\u0431\u044b": 3678, "\u10d5": 29830, "\u2581defaults": 20932, "\ubb3c": 30895, ",-": 7667, "Func": 9715, "\u68a6": 31999, "\u2581creativity": 22317, "aman": 14886, "fan": 11479, "\u2581experiments": 14107, "ir": 361, "\u2581float": 4932, "pal": 11920, "\u2581hill": 12254, "xe": 8141, "margin": 14656, "*\"": 27045, "isine": 26704, "\u2581authentication": 20658, "\u5979": 30715, "\u2581sector": 9642, "\u2581ng": 16937, "ename": 2975, ").": 609, "\u2581Av": 6505, "\u120d": 31741, "xf": 7542, "\ud83d\udfe1": 30770, "omsnitt": 22847, "\u0e36": 31211, "\u2581controlling": 24148, "\u2581beside": 9439, "HE": 1821, "grades": 26830, "verted": 18692, "\u2581weit": 17642, "impl": 9252, "\u2581pressure": 6403, "\u2581a\u00f1o": 13680, "Metadata": 7348, "\u8fd1": 30363, "\u2581tand": 27631, "(`": 11045, "ITS": 20688, "\u2581`": 1552, "z\u0105": 10412, "\u0432\u044a\u0440": 22797, "\u2581l": 305, "CALL": 13741, "UMENT": 27286, "\u0440\u043e\u043c": 7407, "agr": 13947, "ISO": 27324, "}\\,": 12480, "\u2581diamond": 24621, "\u2581adoption": 24056, "\u043b\u0456": 3132, "\u2581wie": 7220, "\u2581galax": 11407, "\u2581rout": 6356, "\u2581k\u00f6nnen": 19766, "iers": 3378, "\u2581businesses": 8689, "\u2581\u0440\u0430\u0439\u043e\u043d": 20656, "\u2581Sarah": 12642, "Strategy": 16161, "tol": 20181, "\u2581rapp": 21779, "aved": 4393, "\u6570\u636e": 21642, "\u2581doubts": 28687, "\u2581Famil": 14288, "\u2581aqu": 11018, "\u043b\u0435\u043a\u0441": 13019, "\u2581Fant": 19800, "\u2581GD": 24217, "\u043b\u043b\u0430": 26593, "''": 5437, "),\r": 23486, "oggle": 9282, "ged": 2560, "\ufeff": 31759, "\u2581regulation": 22470, "\uae30": 29164, "\u2581AT": 9274, "\u2581Bio": 26752, "\u2581adventure": 15982, "rt": 2576, "\u308c": 29387, "rooms": 14520, "\u043a\u043e\u0457": 26962, "\u2581zd": 20133, "\u95ee": 29562, "\u2581Ins": 9513, "OM": 4341, "\u2581bil": 16037, "Stack": 6793, "+=": 21234, "\u2581unit": 5028, "\u2581picks": 23380, "sil": 22585, "\u2581cry": 7843, "\u2581Oxford": 13434, "akt": 7302, "\u2581verse": 20016, "servlet": 22029, "isc": 8286, "\u2581lamp": 21157, "rating": 28599, "\u5c0d": 30838, "\u2581pilots": 27109, "\u2581Apply": 23160, "ables": 2561, "\u2581Didn": 27326, "\u2581Hook": 26154, "\u2581experiences": 9021, "cm": 4200, "\u2581angles": 22289, "\u2581Writ": 13670, "\u2581Einstein": 25721, "\u2581geometric": 28094, "stad": 10862, "liter": 24477, "\u2d30": 30654, "ashboard": 13569, "post": 3192, "\u2581users": 5443, "ina": 1380, "\u2581Claude": 26836, "Millis": 26106, "indust": 25366, "ublic": 651, "\u2581loc": 1195, "stance": 2410, "connector": 23995, "Tw": 21173, "\u2581nord": 10303, "\u2581Helen": 18504, "\u2581establishing": 24491, "\u2581adults": 12111, "\u2581aprile": 27487, "aat": 7748, "\ud615": 30498, "\u8fd8": 29751, "ocom": 18080, "<0x06>": 9, "svg": 14244, "\u2581Episode": 24772, "\u5b8b": 31403, "\u2581handled": 15570, "ention": 2148, "\u2581Arch": 6573, "could": 25327, "\u2581een": 2817, "\u5e2e": 31186, "UK": 22757, "umpy": 14196, "\u2581teenager": 28001, "\u2581rejected": 15585, "Direction": 14757, "\u2581booth": 26868, "omas": 23856, "\u2581romance": 21695, "\u2581\u043a\u043e\u0442\u043e\u0440\u044b\u0445": 28202, "\u2581Status": 10965, "Import": 11944, "\u2581formula": 11303, "MASK": 9945, "\u2581USA": 7035, "etc": 20477, "\u2581Vienna": 25756, "\u2581produced": 6763, "\u2581sealed": 21998, "RENT": 22286, "\u2581slave": 13890, "\u2581slight": 5543, "\u2581Pro": 1133, "\u2581seems": 3969, "\u2581plasma": 28141, "ceed": 3988, "\u5904": 29326, "asty": 11136, "\u10ec": 30937, "\u2581way": 1069, "athers": 13877, "\u2581concentr": 8902, "atz": 6124, "\u2581trip": 6596, "utsche": 16083, "onym": 8095, "ius": 3170, "rium": 16988, "\u2581Dies": 11403, "\u2581sido": 15933, "\u2581v\u00fd": 15173, "\ucde8": 31725, "\u2581authority": 9637, "quality": 14817, "Destination": 23485, "\u2581noted": 8659, "\u2581career": 4835, "pattern": 12392, "\u2581Honestly": 25530, "aster": 1993, "\u2581MS": 8858, "ARGS": 27715, "\u2581kid": 6371, "\u2581current": 1868, "EXEC": 28121, "rf": 12624, "\u2581comes": 3435, "\u2581Enjoy": 22823, "\u2581ebenfalls": 27836, "reedom": 6868, ")^{-": 22816, "\u043b\u0435\u0432": 28110, "\u2581fires": 21600, "\u2581arc": 13605, "\u2581sweat": 13898, "Directory": 11811, "\u2581ports": 21148, "\u2581Holl": 14767, "\u2581piece": 5511, "\u2581agent": 8073, "\u1798": 30264, "\u2581Google": 6182, "\u2581t\u00e9": 20659, "And": 2467, "\u2581girl": 2746, "\u2581attention": 4501, "\u2581idi": 25927, "Cred": 15453, "\uc600": 31958, "izard": 14640, "\u0440\u043e\u0438": 22518, ";\r": 1271, "\u2581instant": 10990, "\u2581bulk": 15059, "kind": 9186, "\u2581sample": 7324, "times": 4593, "\u0107": 28900, "\u0437\u0443\u043b\u044c\u0442\u0430": 17674, "\u6807": 29144, "ampa": 20797, "xfe": 23505, "\u2581Autom": 15939, "\u2581utility": 18936, "orsch": 18952, "\u03b8": 29255, "\u2581highly": 6416, "\u0582": 30291, "\u2581eggs": 14636, "Overflow": 24181, "harm": 24418, "Shell": 15718, "\u2581febbra": 26831, "\u2581mp": 18419, "\u2581work": 771, "\u2581Such": 10373, "\u89c1": 30237, "\u2581tipo": 19054, "lb": 16934, "\u2581Finland": 19186, "\u2581basket": 11359, "\u2581allocation": 21590, "green": 13234, "iva": 5092, "\u2581pension": 26395, "\u573a": 30082, "\u00f3g": 14376, "\u2581Prime": 13321, "nik": 8491, "\u2581understood": 8988, "\u2581flexibility": 22407, "\u2581nov": 4147, "\u2581Stand": 7613, "\u2581f\u00fcnf": 27373, "Pe": 9336, "\u2581Danny": 18709, "hens": 7533, "\u2581implemented": 13492, "\u0442\u0430": 946, "\u2581gibt": 21959, "\u2581coat": 12620, "\u0103r": 24703, "\u3000": 29351, "\u1f78": 30802, "\u2581sound": 2622, "teger": 4440, "mid": 8041, "\u63cf": 29697, "\u2581bul": 5778, "\u2581Manhattan": 21638, "\u2581Senior": 16805, "\u2581bet": 924, "Android": 15225, "ators": 3117, "\u064a": 28972, "ources": 2685, "emos": 24852, "\u2581\u0434\u0430": 5005, "Label": 4565, "Dele": 5314, "\u00bb.": 5781, "ero": 2036, "\u2581Vil": 23415, "loat": 3496, "woman": 24132, "\u2581dru": 4415, "\u2581Using": 9616, "\u2581yet": 2783, "ito": 3068, "ople": 845, "\u0104": 31640, "\u5f8b": 31424, "\ub958": 30810, "\u2581Under": 6605, "\u2581OF": 4033, "\u2581accessed": 24807, "\u2581Slow": 22272, "\u2581cheeks": 19764, "::$": 24498, "ior": 1782, "\u2581Train": 27035, "because": 20475, "ather": 1223, "Total": 10240, "\u2581write": 3324, "concat": 16781, "\u011b": 28871, "sung": 23361, "\u2581Ton": 17104, "WO": 20463, "\u2581vest": 16568, "\u2581\u0458\u0435": 4557, "\u2581n\u00e9": 8688, "anqu": 20668, "tere": 20291, "\u05d4": 29047, "\u6539": 29220, "\u2581Name": 6620, "ENS": 18183, "\u043d\u0438\u043c\u0430": 12629, "ry": 643, ":\r": 8230, "Unexpected": 22348, "\u4f59": 30248, "\u2581manif": 19924, "\u2581split": 7925, "\u2581relaxation": 27607, "\u2581extension": 8223, "\u2581Card": 8564, "\u2581performances": 17487, "\u2581soul": 7237, "\u2581flush": 19329, "gold": 27783, "orders": 10486, "\u2581elect": 3206, "iblical": 26896, "ava": 1750, "ieval": 19168, "\u9ad4": 31155, "\u2581ranked": 19964, "\u2581Symbol": 19775, "\ud788": 31909, "\u2581pref": 27718, "\u2581Christians": 17209, "aga": 8882, "\u2581Olympics": 21351, "pci": 18929, "CREATE": 21005, "\u2581afford": 8205, "\u56db": 29882, "does": 23727, "q": 28775, "\u2581gouvernement": 27125, "\u2581Kit": 13402, "release": 11023, "\u2581subsequent": 14235, "\u2581Mem": 6011, "FIX": 13286, "\u2581threshold": 14053, "\u57f7": 31996, "ogan": 25575, "ioso": 28328, "\u2581reflects": 24345, "idos": 7037, "\u2581quotes": 20759, "params": 3831, "\u2581Ruth": 18943, "\u2581Wy": 13178, "<0x88>": 139, "Transaction": 9521, "\u773c": 31112, "\u2581membr": 25983, "\u2581ladies": 16009, "\u2581smile": 6458, "\u2581(@": 23968, "LY": 9880, "\u2581Change": 13204, "\u2581throws": 4965, "isf": 4281, "igr": 3421, "\u8d85": 29800, "\u0432\u0435\u043d": 16227, "\u5bb6": 29490, "\u2581parameter": 5621, "\u2581radi": 16893, "preter": 21345, "vars": 13819, "sWith": 23594, "\u2581PUR": 12269, "\u2581\"\");": 22053, "\u5eb7": 30720, "\u00e9l": 5560, "\u2581Maria": 8866, "\u2581Getting": 19896, "Choice": 28456, "icted": 10937, "\\,": 5568, "\u2581\u0433\u043e": 1695, "linear": 13548, "\u5404": 30344, "\u2581say": 1315, "\u2581whispered": 12916, "\u2581details": 4162, "*}": 4237, "\u2581rolls": 25880, "Random": 14735, "\u2581registered": 11028, "\u2581eq": 12084, "\u2581stair": 20519, "\u2581doub": 19686, "\uc4f0": 31706, "\u2581legitimate": 20954, "\u2581protective": 25162, "\u2581motivation": 21594, "General": 15348, "\u0bc1": 29981, "\u043d\u043e\u0442\u043e": 28337, "update": 3818, "colors": 21249, "\u7801": 29145, "\u2581Not": 2280, "\u2581\u0441\u043f\u043e": 11275, "=_": 27745, "esk": 19657, "region": 8164, "r\u00e9": 9946, "\u2581init": 2339, "\u2581\u0441\u043a\u043b\u0430": 14094, "pective": 8524, "\u2581desire": 8646, "\u2581foam": 26493, "\u2581cure": 22457, "\u30b1": 30602, "\u062e": 29199, "\u2581because": 1096, "\u2581eine": 3834, "\u0428": 28910, "ate": 380, "Resize": 27714, "White": 18729, "toolbar": 23465, "\u2581cha": 10355, "\u4f01": 31159, "Partition": 20435, "\u57ce": 29727, "VM": 8572, "\u2581m\u00e9": 13138, "impse": 26612, "\u6771": 30366, "\u2581Eth": 11482, "\u2581reply": 10071, "\u2581tr\u00e8s": 15053, "\u2581month": 2102, "\u2581thigh": 21745, "\u043d\u043e\u0441\u0442\u0438": 8849, "dev": 1363, "Clause": 27330, "\u2581gan": 15061, "\u0434\u0435\u043d": 6775, "\u2581inj": 5891, "\u2581DEBUG": 15383, "\u2581Port": 4194, "draw": 4863, "\u2581marginal": 25286, "\u05df": 29618, "\u2581cares": 22338, "stock": 16471, "\u2581\u0441": 698, "forms": 14367, "\u2581presid": 23790, "\u2581appear": 4305, "\u2581outside": 3536, "\u00e1ban": 17180, "module": 4895, "utter": 10112, "];\r": 14420, "Illuminate": 20231, "\u0086": 31038, "awk": 22527, "\u2581drawer": 27673, "\u2581popularity": 20646, "\u2581spoken": 14382, "\u2581priority": 11801, "iffer": 10871, "\u2581fucked": 20251, "\u2581Returns": 6699, "olean": 2481, "oro": 8811, "aughter": 4762, "\u2581disgu": 27409, "rypt": 4509, "\u2581cour": 1547, "\u2581dent": 12156, "socket": 14210, "relative": 19814, "\u0630": 29609, "ellen": 8943, "\u0442\u0443\u0440": 9939, "JSON": 8438, "\u4e0e": 29551, "\u2581deutschen": 25996, "\u2581traditions": 21703, "\u2581Liste": 20131, "\u2581Bull": 16998, "\u00e7\u00e3o": 3709, "\u2581\u0141": 23181, "\u2581oraz": 13755, "kee": 21612, "\u2581placeholder": 17455, "\u2581strongest": 27686, "\u10d9": 30540, "mind": 15471, "\u2581arranged": 15945, "\u00edv": 21022, "NOP": 26389, "amar": 11369, "\u2581Jefferson": 18513, "yst": 827, "HTTP": 12528, "\u2581evaluation": 15197, "\u2581nah": 20330, "\u2581//\r": 26083, "\u2581forcing": 20504, "cipe": 24535, "UTF": 14106, "<0xA5>": 168, "\u2581Light": 9531, "\u2581Haven": 24077, "\u2581partic": 1714, "\u2581Cong": 6201, "andal": 19216, "\u2581f\u00f6rst": 23722, "\u2581addresses": 14501, "\u2581\u0440\u0430\u0441": 11859, "\u2581questioning": 27203, "\u2581pun": 5704, "\u2581processes": 9537, "pare": 10350, "\u0146": 30076, "\u2581sleeve": 27685, "ynamic": 5706, "otos": 26064, "Optional": 15115, "\u2581cracked": 24734, "\u092a": 29794, "ottage": 21881, "\u2581refugees": 25611, "\u2581datetime": 23916, "density": 26753, "devices": 19936, "\u2581optim": 6997, "\u2581lessons": 14785, "\u00eancia": 16194, "\u2581ridic": 12882, "ORS": 13520, "atom": 16739, "miss": 7924, "\u2581District": 8207, "ached": 2694, "pectives": 26859, "\u2581plugin": 13062, "\u2581friendly": 10131, "\u2581arrog": 28327, "\u2581irr": 24559, "\u2581Affairs": 20871, "inar": 12939, "\u2581amid": 22574, "\u2581\u0430\u0440": 8691, "inely": 16297, "\u2581attempts": 13199, "Mount": 20969, "\u2581MD": 15834, "\u2581ARM": 23544, "stage": 13590, "\u2581space": 2764, "\u2581mismo": 16511, "SSL": 14330, "\u2581...": 3850, "anni": 15054, "\u2581femme": 25040, "\u2581lucky": 11977, "\u2581\u0447\u0435\u0440\u0435\u0437": 20085, "\u2581sp\u00e9": 27444, "uity": 25239, "\u5224": 29485, "Help": 17302, "\u0441\u0442\u0432\u0435\u043d": 7265, "chester": 11841, "\u2581Schedule": 25874, "\u2581Moh": 13610, "\u2581cre": 1317, "dt": 7051, "\u2581lif": 5678, "Re": 1925, "icans": 6835, "\u2581propaganda": 24010, "esz": 27751, "\u043a\u0430\u0442\u0430": 24648, "pute": 8145, "\u2581hosted": 18822, "\u2581Stalin": 24068, "\u2581approval": 15000, "phones": 18624, "true": 3307, "?\"": 1110, "abases": 25716, "\u2581contributed": 18746, "\u2581pb": 27933, "\u2581pitch": 10587, "\u2581Mount": 7612, "\u2581Michael": 5459, "Sum": 9881, "\u2581SE": 5820, "\u2581pr\u00e9": 12823, "\u2581rotation": 15015, "nych": 10317, "\u2581medal": 16338, "\u2581otra": 26045, "\u2581Gle": 26796, "\u2581\u0432\u043e\u043b\u043e": 28229, "Ben": 18113, "\u0440\u0430\u043a": 15936, "bew": 24134, "yect": 23132, "\u0c30": 31190, "bres": 13243, "\u2581BS": 28691, "ivil": 4617, "\u2581How": 1602, "\u1ff6": 30866, "II": 2559, "aines": 17251, "groups": 12420, "Post": 7272, "ceiver": 15237, "Html": 14736, "cite": 1935, "\u0003": 30662, "lections": 4488, "\u2581Ess": 11299, "\u2581hills": 18553, "\u2581program": 2007, "\u2581fate": 16942, "\u2581devices": 8309, "\u2581\u0408": 22892, "owy": 13344, "ce": 358, "\u043a\u0430\u0445": 15274, "ady": 4425, "\u2581affecting": 27817, "expl": 17788, "\u5fc5": 29593, "\u2581Challenge": 21931, "\u2581sto": 21651, "\u2581introduce": 13097, "apeut": 25334, "Parser": 8323, "\u5e03": 29802, "\u2581cours": 19780, "\u2581teeth": 9033, "av": 494, "\u2581OR": 3994, "\u2581properly": 9222, "\u2581Boolean": 17110, "Chat": 18165, "vote": 22644, "constants": 23610, "\u2581rely": 15187, "broad": 27867, "\u63a5": 29076, "\u2581floating": 15689, "\u6d0b": 31434, "MB": 5953, "leton": 9224, "sequently": 23321, "rot": 5490, "\u0430\u043b": 14993, "\u2581collapsed": 22431, "\uad6d": 30779, "\u2581esper": 22498, "EDIT": 27495, "\u2581observed": 7975, "Aut": 3967, "\u504f": 30719, "\u2581lawyer": 12668, "rons": 13455, "\u2581Obama": 11764, "'):": 18591, "\u2581Bark": 27542, "\u00aa": 28956, "TIM": 16636, "Io": 26086, "\u2581appet": 22145, "\u2581exploring": 21354, "\u2581Bet": 6382, "\u2581onclick": 28474, "\u2581stroke": 14684, "frag": 19221, "\u2581Hoff": 26171, "ieurs": 14544, "\u2581sorts": 16971, "\u2581pecul": 23908, "backs": 19076, "\u2581lesson": 15330, "\u2581Kate": 14976, "olic": 7437, "\u2581soort": 14571, "Overlay": 22869, "\u2581sed": 9178, "cean": 8983, "\u2581\u00a7": 25585, "ego": 6221, "Panel": 8370, "\u2581sov": 28102, "\u2581Ing": 19848, "\u0448\u043a\u0438": 23858, "term": 6590, "\u0457\u0432": 24299, "ringe": 22659, "\u2581developed": 6202, "\u2581IllegalArgument": 23731, "dup": 20267, "\u2581rush": 16002, "osity": 24879, "\u2581powder": 14761, "Offset": 5130, "\u2518": 31652, "izations": 13809, "\u2581policy": 4920, "\u0437\u043d\u0430": 6973, "reader": 14646, "**": 348, "Opts": 23888, "Record": 7079, "\u2581furniture": 12389, "frak": 7917, "\u2581refuge": 14815, "ira": 4807, "MODE": 7227, "\u2581tr": 467, "iance": 4609, "\u2581ocup": 20903, "ag": 357, "\u043a\u0435": 4026, "\u2581animals": 8222, "hab": 8237, "\u0446\u0435\u0440": 26654, "\u2581aspect": 6563, "\u2581Greece": 20438, "\u2581Leg": 5993, "album": 16068, "\u2581lacking": 26679, "rico": 22430, "INFO": 7571, "ize": 653, "\u2581dai": 22073, "\u90ce": 30682, "\u2581**\"": 24079, "VERY": 25928, "\u2581steps": 5944, "mile": 23881, "\u2581animated": 25693, "\u00fb": 28951, "\u8865": 31029, "resh": 2874, "\u2581Bring": 24786, "\u2581Kal": 12117, "Received": 25411, "ured": 2330, "\u2581retain": 16815, "\u2581Fran\u00e7ois": 21976, "loads": 28516, "ylan": 21605, "HOW": 24001, "\u2581Met": 5522, "ard": 488, "\u2581cref": 14799, "\u2581\u0421\u0443": 13656, "UR": 1990, "loaded": 16070, "\u2581Pearl": 25895, "\u2581vr": 22954, "\u2581Martin": 7204, "emark": 21819, "\u2581patterns": 11533, "\u2581Lux": 18194, "iska": 13475, "\u2581proof": 7167, "off": 1769, "\u2581configurations": 24991, "\u2581jed": 6294, "\u0433\u0440\u0430\u0444\u0438": 11075, "\u2581Rav": 27037, "ugu": 26213, "\u2581fell": 5970, "\u043a\u0442\u0438": 11856, "java": 7628, "Un": 1733, "}})": 27204, "wing": 9988, "aks": 9140, "uros": 22751, "\u2581ML": 19003, "\u2581dependency": 26473, "\u2581Everything": 13090, "uta": 11473, "More": 15279, "\u2581gods": 16578, "ator": 1028, "\u2581into": 778, "\u2581\u0432\u0443": 27983, "\u2581originally": 10806, "ask": 1152, "\u2581dive": 25198, "\u2581should": 1023, "\u2581sel": 7530, "cq": 27009, "\u2581Whe": 6738, ":{": 26856, "ieme": 24755, "\u00e9rieur": 21641, "\u2581interrog": 28197, "None": 5364, "Break": 17240, "\u2581enthusi": 18185, "\u2581floor": 4366, "\u2581energet": 28236, "Summary": 17590, "\u2581notable": 19225, "\u0440\u0456\u044f": 23477, "\u2581Illuminate": 22652, "\u2581Press": 6127, "ategory": 3532, "\u2581reached": 5048, "Counter": 15805, "\u2581corporations": 24171, "\u2581Mik": 16340, "\u2581poorly": 24122, "\u2581Trad": 17581, "\u2581locks": 25347, "\u2581}\r": 3426, "\u2581purs": 7900, "\u2581perhaps": 5230, "\u2581\u043f\u043e\u043b\u0443\u0447\u0438": 18977, "\u2581installation": 14843, "\u2581dice": 22544, "\u2581romantic": 16534, "\u2581sixth": 20865, "ancellationToken": 26217, "package": 7573, "\u8f49": 31623, "\u2581rolled": 12183, "\u2581spectacular": 23966, "\u2581Design": 8648, "\u2581Ms": 16870, "tr": 434, "\u2581\u00e2": 22506, "\u2581Suddenly": 21455, "}^{\\": 6928, "\u2581logical": 16441, "\u2581Sk": 3891, "\u2581fiber": 18867, "<": 28789, "fed": 27880, "\u2581MAC": 23584, "<0xEA>": 237, "\u2581Morning": 25869, "\u2581Luther": 22370, "\u2581ds": 18099, ":*": 15563, "\u2581convers": 5315, "k\u00f6": 17986, "avg": 23750, "ih": 4371, "\u2581aimed": 17939, "prise": 9266, "\u2581operations": 6933, "riel": 13374, "\u2804": 30897, "aire": 5731, "\u53cd": 30004, "\u2581initialization": 27620, "\u2581bundle": 15484, "\ucd5c": 30310, "\u2581scrap": 14553, "\u2581custody": 28103, "\u2581Fried": 10763, "\u2581developing": 10423, "Custom": 7219, "nage": 27888, "agraph": 11280, "days": 13298, "\u043d\u0438\u043c": 8895, "usage": 16052, "VIS": 20178, "itas": 21131, "\u2581cooperation": 21732, "\u043f\u043b\u0430": 24392, "edish": 21113, "\u103a": 30247, "ERY": 19369, "limits": 14347, "\u2581monaster": 27128, "\u2581careers": 26072, "server": 4323, "\u2581gent": 8888, "\u2581\"\")": 20614, "\u0432\u044f": 8281, "\u2581tit": 5114, "amiento": 15090, "\u7070": 31951, "<0x60>": 99, "imer": 4156, "\u2581synchronized": 25339, "\u2581estab": 3582, "\u2581material": 3388, "elijke": 11718, "oin": 2448, "\u2581Silver": 14511, "\u2581Phill": 17083, "\u2581\u0430\u043a\u0430\u0434\u0435": 27820, "health": 14513, "\u2581covers": 12784, "\u00e9c": 6915, "bo": 1798, "\u2581attacking": 23627, "\"][\"": 24635, "SIG": 26956, "\uff01": 29267, "\u2581Enter": 9810, "variables": 24227, "\u2581prayers": 26742, "\u2581Ot": 12133, "\u2581\u0441\u0442\u0438": 21626, "\u2581strang": 26427, "\u2581hook": 8825, "ain": 426, "\u2581USB": 11588, "\u2581dt": 16599, "escape": 19027, "\u2581rust": 14912, "\u2581belt": 14857, "\u2581Step": 7268, "\u2581SY": 17121, "ZE": 4421, "oge": 27695, "SS": 1383, "\u2581delet": 21750, "\u05e8": 29075, "\u63d2": 29959, "\u2581Brow": 19332, "get": 527, "\u2581\u0441\u0432\u043e\u0438": 25589, "\u2581Q": 1186, "mul": 18176, "\u2581Category": 18327, "urb": 5354, "\u2581tool": 3921, "\u2581mobile": 7578, "<0xBD>": 192, "\u2581Confeder": 22474, "\u2581boundaries": 16824, "ind": 507, "\u2581Cel": 17233, "\u2581HT": 7260, "\u2581Master": 9361, "MetaData": 26620, "\u2581supplier": 25877, "widget": 8167, "\u2581backs": 24007, "MED": 25428, "\u2581named": 5160, "\u2581tested": 13143, "\u2581r\u00e9gion": 23227, "\u2581know": 873, "\u2581Estado": 26507, "\u09a6": 30870, "\u2581Kansas": 17778, "keeping": 26840, "\u2581Mens": 20562, "\u2581doubt": 6217, "Allow": 20230, "inea": 21406, "Abs": 15521, "\u2581absurd": 22976, "\u2581surge": 24048, "\u5237": 30426, "\u2581writes": 13883, "\u2581improvements": 19664, "\u12a0": 31942, "Dam": 18312, "\ud83e\udd14": 30255, "\u2581\u0412\u0435": 10854, "\u2581unem": 20955, "\u2581Zent": 27979, "\u2581including": 2490, "\uc5d0": 29148, "\u2581relie": 14267, "\u2581cents": 27337, "\u7687": 30645, "oney": 2011, "\u250c": 31294, "<0xF6>": 249, "ples": 2815, "\u2581Nevertheless": 18828, "\u2581\u00eatre": 11983, "\u2581fits": 16395, "\u2581coeff": 12626, "\u0440\u0438\u0439": 16278, "\u2581Daniel": 8103, "\u0621": 30052, "\u2581saint": 27361, "&": 28800, "commands": 22738, "outing": 8892, "PACK": 20683, "\u2581impressed": 17434, "riven": 21694, "\u804a": 31600, "\u2581returns": 5723, "\u2581complaining": 26509, "\u2581Yes": 5592, "\u2581Lewis": 13131, "\u2581pounds": 14090, "\u5f52": 30588, "\u2581employers": 22271, "\u7ecd": 31457, "\u2581realiz": 16403, "\u2581Ende": 17166, "\u2581\u0441\u043f\u0435": 16201, "Pol": 5096, "\u2581passage": 12280, "\u2581regularly": 12274, "\u0418": 28892, "\u2581aesthetic": 27974, ".\u201d": 2435, "\u2581tut": 8311, "\u84dd": 31084, "\uc88c": 31455, "\u2581facilitate": 25729, "\u00f3s": 11901, "\u2581Ir": 4747, "\u043d\u0438\u044e": 12301, "\u2581Near": 17602, "\u0442\u0435\u043b\u044f": 17371, "enger": 9243, "chart": 16617, "for": 1392, "owned": 19589, "sh": 811, "\u2581finance": 15978, "\ub09c": 31876, "\u60a8": 29689, "\u0440\u044b": 4092, "\u5ea6": 29184, "\u66f2": 30580, "queue": 5874, "season": 17956, "\u2581Valid": 12777, "\u0442\u0430\u043b\u0438": 21865, "\u2581wealthy": 20724, "Real": 12995, "\u2581Opt": 15767, "\u2581cargo": 16666, "<0xB8>": 187, "\u2581fier": 16307, "\u2581Crist": 17564, "\u2581advised": 21020, "\u2581))": 27302, "\u2581packed": 14703, "Er": 17900, "\u300a": 30095, "\u2581loudly": 28003, "FE": 5790, "-------": 25702, "\u2581plain": 10835, "\u2581design": 2621, "\u2581til": 9757, "\u2581exciting": 12536, "rp": 16638, "\ub2f5": 31647, "\u0432\u0430\u043d\u0438\u044f": 22588, "\u0102": 30148, "Builder": 3686, "\u2581Skip": 24419, "\u0448\u0435\u0439": 22728, "\u53f8": 29989, "\u0153": 28952, "\u2581Ice": 19587, "\u2581restrictions": 17204, "rock": 16013, "rapper": 6131, "\u2581inv\u00e5nare": 27158, "ACCESS": 24417, "\u2581liberal": 14987, "\u2581editing": 19617, "\u2581cash": 7877, "\uacc4": 30106, "\u2581dial": 14262, "\u2581\u043e\u0431\u043b\u0430\u0441\u0442\u044c": 27216, "ographie": 12262, "\u2581f": 285, "\u2581\"_": 15728, "!\");": 22896, "\u2581gesch": 15781, "uetooth": 19437, "holders": 15523, "\u2581Almost": 20676, "\u2581Campaign": 27003, "\u2581Chand": 27384, "\u2581belonged": 22232, "\u2581cur": 1191, "urs": 1726, "\u90e1": 31174, "\u2581n\u011b": 21500, "uer": 3807, "\u6bc1": 31699, "\u2581\u0436": 8937, "IDE": 15087, "\u2581Egy": 9074, "\ucc3d": 31476, "Hal": 26924, "\u2581Host": 15511, "Arr": 12105, "seed": 17498, "\u2581Non": 9187, "\u2581mixture": 16232, "\u2581reduction": 13388, "\u2581surf": 20197, "\u2581ate": 15732, "\u2581married": 6368, "\u2581aut": 1206, "sep": 21571, "\u2581Activity": 24066, "Release": 17327, "\u2581ft": 12608, "\u2581figured": 14775, "\u2581[\u2026]": 22819, "\u2581Rou": 17257, "\u2581polynom": 17077, "\u2581heading": 13573, "asket": 8173, "\u2581movies": 10615, "\u043d\u0438\u0446": 13042, "\u0422": 28875, "Edit": 8470, ".[": 20011, "ldots": 8764, "\u2581Generic": 26348, "\u0445\u0443": 18668, "\u2581Afghan": 16320, "\u2581adjusted": 21875, "ovi\u0107": 22006, "\u2581security": 4908, "\u53d7": 30154, "\u0440\u0430\u043d": 4934, "ID": 1138, "\u2581Early": 12138, "\u2581tier": 24488, "\u2581melt": 19542, "\u2581Refer": 25958, "\u2581right": 1103, "\u02bc": 29846, "\u0442\u0432\u0430": 22868, "\u2581Tem": 9166, "\u2581hoof": 28376, "\u2581signs": 10090, "minister": 26085, "\u2581drawn": 10421, "<0x1E>": 33, "COMP": 9028, "entes": 11829, "\u2581pentru": 19493, "rop": 1506, "\u2581Polit": 8953, "\u2581bugs": 25454, "\u2581hearing": 9788, "\u2581tang": 15362, "\u2581Od": 11424, "\u2581austral": 27162, "\u1fe6": 30622, "\u2581Will": 2875, "\u2581pleasure": 10736, "\u0441\u0441\u0438": 6993, "cca": 14698, "\u2581compat": 10794, "blank": 15387, "\u2581Course": 19688, "\u7d93": 31139, "CLIENT": 23155, "\u2581Mag": 4642, "\u2581debug": 10183, "\u2581Khan": 18595, "\u0440\u0435\u0437": 15369, "\u4ece": 29505, "\u2581Li": 11469, "\u2581ceiling": 15273, "\u2581hide": 9123, "\u2581template": 6897, "\u2581Ku": 19698, "plaat": 14369, "irit": 4442, "\u2581recon": 9220, "\u2581Jose": 6282, "\u2581Bloom": 23451, "\u2581arrival": 13758, "\u2581usb": 17075, "\u2581Vent": 22524, "prim": 15879, "\u2581Neither": 19100, "\u2581scroll": 11445, "su": 2913, "\u2581deput": 17928, "ags": 1787, "\u2581mast": 27529, "\u2581gouver": 20401, "\u2581ao": 8468, "\u2581structures": 11294, "\u2581upgrade": 16518, "\u2581bapt": 26907, "\u2581systems": 4918, "\u2581wed": 6887, "\u2581\u043d\u0430\u0447\u0430": 11084, "\u2581\u043f\u0440\u0430\u0432\u043e": 21723, "atively": 6308, "\u8be5": 29350, "\u2581backwards": 24324, "\u2581Dir": 19926, "\u2581hour": 5115, "fragment": 23499, "\u2581other": 799, "\u2581mov": 1806, "\u021bi": 14846, "\u2581crack": 9551, "\u2581togg": 21171, "\u0437\u043e\u043d": 24973, "iest": 11281, "\u2581clouds": 16393, "\u2581ranging": 22741, "\u2581sp\u00e4ter": 15646, "atta": 16374, "template": 7488, "display": 5320, "\u30ba": 30238, "RD": 15363, "\u2581approximately": 10870, "\u2581Larry": 19861, "\u516d": 30467, "\u2581(\\": 3566, "creen": 9106, "\u2581ram": 15355, "\u2581survive": 13145, "rif": 10786, "\u2581\u0411\u043e": 8736, "\u10ea": 30991, "define": 3380, "\u552f": 30443, "\u2581grand": 3487, "\u2581hanno": 23618, "\u2581panic": 15107, "\u00e4hr": 15072, "\u2581comb": 3006, "\ud398": 30446, "\u2581unique": 4842, "fica": 17643, "\u4f1d": 31884, "\u6613": 29945, "\u2581agreements": 17320, "\u5faa": 30484, "usammen": 14533, "mathsf": 12009, "\u2581\u0441\u0438": 5294, "\u2581reproduce": 24585, "owi": 24810, "/{": 11912, "\u043d\u043e\u0439": 3596, "isco": 23364, "\u2581os": 3497, "ett": 2973, "long": 4353, "\u2581adult": 6555, "\u2581vacc": 10980, "cache": 5319, "renderer": 20522, "\u2581answering": 24402, "\u00dd": 31113, "atically": 6789, "\u00d1": 29840, "Colors": 25651, "<0xE8>": 235, "\u2581computation": 21728, "\u2581Kim": 10791, "ears": 5940, "\u2581thanks": 8196, "\u2581couple": 4308, "olation": 21570, "\u043a\u0440\u0430\u0457\u043d": 24226, "ref": 1013, "\u2581Railway": 22687, "\u2581Hy": 10540, "ensk": 17829, "\u045a\u0430": 15857, "\u2581vor": 6876, "\u0cb8": 31707, "\u2581Jesus": 6466, "\u2581Monday": 9262, "slug": 23983, "\u683c": 29293, "\u2581scattering": 21635, "ved": 1800, "FilePath": 22367, "\u2592": 30161, "<0x7B>": 126, "\u2581slot": 10544, "\u2581loud": 9614, "\u2581party": 4150, "\u2581whilst": 18703, "<0x65>": 104, "\u0446\u0438\u044f": 7359, "\u2581ear": 8120, "Pers": 13603, "\u8996": 31077, "\u2581Young": 9465, "\u2581da": 1866, "\u2581Cape": 18817, "\u61c9": 31508, "\u2581park": 4890, "\u2581Justin": 21252, "\u2581uitgen": 15641, "\u2581Intelligence": 23091, "\u2581meets": 18487, "\u2581tanks": 20274, "xic": 14443, "ICENSE": 7941, "\u2581bored": 19739, "umerate": 11892, "\u0916": 31230, "hci": 17208, "\u274c": 31200, "\u2581gently": 14259, "imary": 7754, "larg": 20832, "\u2581AL": 10461, "oes": 6496, "\u2581automatic": 16337, "vare": 5869, "\u2581Britain": 10174, "Submit": 19832, "SET": 4270, "\u2581lately": 22628, "\u2581II": 3717, "hang": 15140, "Page": 4068, "\u2581Ship": 23168, "Friend": 22412, "\u0bb1": 31002, "\u2581seven": 6671, "abort": 28209, "contract": 22135, "ceptor": 18933, "\u2581ar": 597, "\u2581Portland": 23732, "\u2581hours": 3316, "\u2581{": 371, "Guard": 24093, "\u2581maybe": 4357, "zec": 24005, "\u2581EM": 22679, "\u2581temperatures": 17991, "\u2581beloved": 21708, "\u2581j\u00e1": 24774, "\u2581\u2014": 1040, "\u2581Work": 5066, "\u00e4hrend": 14934, "iter": 1685, "\u2581<": 523, "pository": 12530, "\u2581stadium": 24096, "\u2581enem": 13595, "<0x8E>": 145, "\u2581wherever": 20517, "agma": 18102, "formed": 12914, "\u2581Chrome": 25921, "\u2581PARTIC": 12942, "\u2581advertising": 12896, "\u2581Dorf": 27577, "\u2581Honor": 19939, "\u822c": 30812, "Connector": 27563, "imi": 13840, "*": 28736, "\u2581($\\": 18157, "\u0435\u0432": 7331, "\u2581before": 1159, "\u2581Cec": 22022, "\u2581Sak": 24586, "\u2581\u0418\u0441\u0442\u043e\u0440\u0438\u044f": 24439, "Lu": 26136, "character": 19933, "\u2581nurs": 13797, "sing": 11601, "\u2581continue": 3688, "yers": 15624, "\u2581mercy": 25856, ">\"": 11333, "\u7d30": 31451, "\u17b6": 29847, "\u2581Eq": 9692, "\u89c4": 29946, "\u2581Kab": 27130, "\u2581trunc": 23832, "\u2581confess": 26920, "D": 28757, "shops": 21673, "\u2581matrix": 7111, "\u6c34": 29692, "boards": 18256, "plain": 19457, "\u2581Character": 23471, "\u2581Screen": 24432, "erts": 9916, "uming": 21542, "\u2581percent": 4153, "bc": 12286, "\u2581Stadium": 8993, "Fixed": 16126, "\u2581obligation": 24775, "\ud2b9": 31684, "functions": 19659, "pool": 6474, "\u00e9ben": 23825, "\u2581alive": 8630, "icients": 18315, "\u2581osc": 16221, "\u2581stata": 20879, "\u2581response": 2899, "\u2581arte": 27697, "\u2581filling": 15990, "\u2581Property": 13059, "\u2581subtle": 18842, "\u5434": 31812, "\u2581caller": 18314, "zenie": 24918, "tre": 4110, "\u2581morph": 18087, "present": 12497, "CONTEXT": 27181, "bel": 7244, "\u2581Palest": 13897, "\u2581valor": 23666, "tenance": 9944, "Best": 19112, "addClass": 18133, "Ber": 23531, "\u2581de": 340, "\u2581\u043f\u0435\u0440\u0435\u0434": 27844, "\u2581behave": 26193, "otherapy": 27843, "\u2581stripped": 27371, "\u0440\u0443\u0434": 22308, "red": 893, "nym": 15416, "\u2581ruled": 20080, "txt": 7088, "\u2581Integr": 18208, "\u2581%,": 28590, "Source": 4220, "\u2581NOTE": 21125, "ussian": 12897, "\u2581perception": 20968, "\u2581outdoor": 15382, "\u2581meta": 11678, "\u305d": 30292, "\u2581land": 2533, "\u056f": 30476, "halb": 19273, "\u2581varying": 22312, "rob": 18443, "\u2581amer": 10269, "\u0112": 31767, "minipage": 25734, "\ub108": 30933, "rupal": 15030, "\u52bf": 31728, "\u2581track": 3508, "\u2581Miguel": 20963, "\u2581Pu": 23078, "\u2581mour": 22004, "\u2581Queensland": 28536, "rin": 19916, "\u2581\u00e1lbum": 21231, "\u8a08": 30629, "\u2581initially": 12735, "\u2581lav": 22181, "amen": 9519, "\u2581aj": 23371, "\u2581cor": 1275, "vc": 8904, "\u2581\u043f\u0438": 10484, "\u2581Exp": 16790, "\u2581Romans": 28282, "\u2581precision": 16021, "++)": 3073, "\u2581stretch": 14742, "Try": 17666, "part": 1732, "being": 15823, "oard": 20446, "status": 2837, "UT": 1765, "\u2581Georg": 7505, "\u2581particularly": 6311, "\u2581gep": 14152, "Sec": 6291, "\u2581Photo": 16555, "\u671f": 29275, "\u2581\u0433\u043e\u0434\u0438\u043d\u0430": 18614, "\u8d2d": 30207, "ext": 1205, "\u2581jun": 6362, "asta": 7788, "?\u201d": 10584, "\u2581Joe": 7833, "apple": 24175, "rias": 23603, "\u2202": 31698, "\u2581eternal": 25391, "\u2581assertThat": 16139, "ardi": 22999, "\u2581head": 1335, "Inject": 22079, "\u2581mm": 6020, "\u2581Terr": 13151, "\u099c": 31220, "\u0438": 28772, "alen": 16777, "\u2581Polish": 20329, "\u6cb9": 31315, "\u2581left": 1749, "Turn": 23429, "edly": 12395, "}}_{": 16125, "ichi": 22617, "\u2581Beat": 17618, "\u2581Setting": 23433, "\u2581CHAPTER": 16399, "VA": 18330, "undred": 4381, "Parameters": 7405, "\u2581Material": 15210, "\u2581np": 7494, "\u2581Leo": 19795, "onne": 18304, "\u2581racial": 18450, "PS": 5412, "\u2581horrible": 16826, "\u2581cigarette": 19819, "Shop": 22775, "ron": 1689, "\u09ad": 31819, "Camp": 23268, "\u2581Website": 17697, "bal": 6323, "abc": 16612, "Video": 11761, "\u2581Amanda": 26413, "ple": 792, "\u2581statements": 12908, "qual": 14033, "\u2581fifteen": 13956, "\u1f08": 30966, "\u2581wants": 5659, "inkle": 26630, "\u2581took": 2056, "\u2581Fut": 27280, "\u2581days": 2202, "lst": 26816, "\u4e92": 30989, "\u2581modifications": 26470, "\u2581stage": 5430, "\u2581ic": 19699, "keit": 11231, "\u2581photographs": 17806, "\u2581loop": 7870, "\u2217": 31088, "uries": 8627, "\u2581migr": 11205, "oom": 8605, ">\r": 3685, "\u2581diss": 9792, "\u6b4c": 30509, "\u2581Land": 5062, "nu": 3556, "\u2581congress": 22692, "\u2581Base": 7564, "iler": 5809, "imes": 1198, "\u00e9es": 4473, "\u2581Nova": 20534, "ample": 1662, "\u2581Lag": 20997, "\u2581accus": 21786, "Pass": 6263, "\u2581rapidly": 14099, "Es": 19281, "\u2581describ": 2977, "fem": 26857, "\u2581paths": 12924, "\u2581links": 9136, "\u2581['": 5936, "\u2581Qual": 9480, "\u2581meditation": 23976, "\u2581graduate": 16174, "\u0442\u0438": 1224, "\u2581warrior": 25838, "vod": 21166, "\u2581normally": 12336, "\u2581correlation": 17301, "\u2581entertain": 12127, "Read": 3390, "\u2581Rec": 3523, "\u2581Rug": 21769, "isely": 11973, "rangle": 6820, "\u2581cob": 24258, "\u2581asleep": 15231, "\u2581ash": 15272, "\u2581],": 12052, "\u2581Woods": 28628, "\"\\": 16646, "Europe": 19298, "Registration": 25569, "\u2581petition": 25045, "CREF": 25627, "\u2581dag": 20144, "never": 8174, "\u7248": 29547, "\u2581Sleep": 24027, "\u05d8": 29684, "\u0434\u0435": 1903, "\u2581revers": 16876, "\u5c71": 29480, "\u2581analy": 10148, "\u2581twin": 21809, "\u2581ham": 11218, "\u2581hybrid": 22091, "uge": 3683, "\u2581href": 5501, "ateur": 10229, "Console": 19638, "\u2581zam": 23884, "\u2581disappe": 8620, "chain": 9132, "\u2581lie": 4852, "SERVICE": 27087, "\u2581una": 1849, "\u2581allem": 16637, "enne": 9078, "\u2581clinical": 15193, "\u2581whoever": 24793, "sdk": 17287, "\u2581Gun": 20655, "het": 4103, "\u2581such": 1259, "arga": 26538, "nb": 8611, "\u691c": 30948, "\u2581somet": 4378, "\u2581wyn": 27769, "\u9762": 29181, "\uc815": 29233, "ge": 490, "\u0446\u0438\u0438": 5991, "\u2581zwei": 12229, "plus": 11269, "\u2581viv": 13686, "\u2581advance": 8670, "\u043b\u0443": 2932, "\u2581len": 3919, "tera": 20328, "\u2581Time": 5329, "eld": 4333, "\u2581//": 589, "\u2581fre": 8077, "Pro": 933, "\u2581eager": 15381, "\u2581ESP": 23369, "\u2581exhib": 8244, "\u2581Fed": 22377, "\u6302": 31431, "bw": 22304, "\u2581ihrer": 19320, "scalar": 27114, "\u2581singer": 15307, "\u00fd": 28889, "\u00e4lt": 17966, "\u2581vag": 23195, "\u2581backend": 24327, "\u2581\"--": 19052, "\u2581grab": 7290, "\u0e0d": 31064, "Missing": 22647, "\u092e": 29672, "\u2581Jason": 14877, "\u2581etc": 4345, "UM": 4171, "\u2581KEY": 19378, "\u2581Ber": 3405, "\u2581\u0441\u043e\u0432\u0435\u0442": 21130, "tto": 27099, "\u2581dick": 23108, "reset": 7159, "\u03a7": 30438, "sembly": 7148, "icator": 17573, "\u2581lunch": 9957, "\u2581memory": 4733, "\u0446\u0443": 15357, "\u043c\u043e\u043d": 21866, "\u2581abc": 18641, "\u2581liberty": 26740, "\u2581centered": 25904, "($": 1501, "\u2581unity": 23712, "\u043a\u0430\u0434\u0435": 21159, "bin": 5721, "ioned": 21856, "wohner": 18391, "parents": 20415, "\u2581\u0441\u0435\u043b\u043e": 15377, "\u2581Enable": 22177, "\u6258": 30955, "\u2581Dob": 26737, "\u2581MA": 6540, "\u2581Franco": 28289, "EL": 2980, "\u2581Kid": 23553, "\u2581haben": 17738, "FO": 4521, "\u2581Mc": 3283, "uth": 2657, "\u2581profits": 20285, "\ud83d\ude01": 30707, "\u2581str": 1117, "Info": 1895, "ek": 950, "\u2581observ": 3977, "=[": 12303, "\u67d0": 30301, "\u2581subject": 3817, "Throw": 16519, "\u2581Hub": 15969, "\u2581Lad": 20542, "\u2581size": 1669, "ish": 789, "\u2581topics": 13817, "atinum": 28250, "icks": 5446, "anny": 9036, "\u2581subset": 19804, "READ": 8172, "\u2581atr": 21857, "itung": 24422, "acio": 19867, "ider": 1184, "\u2581presenting": 27445, "\u2581durch": 6331, "\u2581isinstance": 17607, "\u2581jak": 19755, "\u2581lowered": 19307, "\u2581fees": 12845, "\u2581indust": 3346, "\u2581Eva": 27258, "\u2581literal": 20819, "\u2581therapy": 12238, "\u2581throne": 24459, "\u8005": 29276, "Weight": 16310, "\u2581&=&": 17481, "\u0302": 30633, "Culture": 24742, "\u2581bore": 22809, "ilor": 20323, "\u2581lod": 19506, "\u2581Math": 6960, "DAI": 22715, "ess": 409, "\u2581kap": 16056, "\u2581reject": 9198, "\uba74": 29565, "access": 6920, "rena": 14248, "\u2581seized": 24564, "\u9519": 29403, "\u66fe": 31676, "ong": 566, "upport": 3650, "\u2581Chairman": 25294, "VAL": 3668, "vre": 19465, "\u2581NO": 7929, ":\"": 4825, "\u0442\u0440\u0435": 19317, "tain": 12092, "\u2581accommodation": 25085, "\u2581surg": 24130, "\u2581supplies": 13679, "standard": 20587, "\u021bii": 24006, "unt": 2794, "js": 2777, "\u2581Coffee": 27275, "lte": 27939, "MX": 26534, "skiego": 17983, "\u2581Coach": 24847, "<0x30>": 51, "quare": 9415, "\u0ca4": 31849, "\u2581$\\{": 17543, "\u101b": 31808, "alter": 19831, "\u2581boys": 8066, "\u6709": 28998, "\u2581therapist": 26558, "destroy": 11349, "\u0432\u0438\u0434": 27190, "\u2581{},": 12682, "\uc0ad": 30512, "usk": 14948, "eli": 20949, "\u0459\u0435": 11945, "\u2581forms": 6967, "\u2581*/\r": 7608, "internal": 7047, "World": 11978, "Subject": 22210, "\u2581gem": 15037, "\u2581m\u00e9s": 12643, "\u30e9": 29281, "\u2581Fifth": 23359, "\u2581suiv": 15434, "Units": 26437, "alie": 26877, "it": 279, "\u0dbb": 31532, "Picker": 23318, "grp": 25890, "\ubc29": 30240, "COL": 9600, "\u2581Rivers": 28574, "rtc": 17485, "DECL": 24826, "\u98de": 31259, "\u0433\u0438": 3171, "\u2581agosto": 14681, "\u2581R\u00fcck": 25539, "spl": 15213, "\u2581Steven": 20257, "\u2581Licensed": 10515, "SN": 15024, "Dto": 18356, "'];": 9153, "\u2581long": 1043, "\u30c4": 30267, "\u0982": 31882, "\u2581bound": 3585, "\u2581retval": 25232, "\u2581audit": 24790, "\u2581k\u00f6r": 28059, "ient": 722, "iani": 17151, "\u2581prem": 5146, "amount": 12922, "\u0641": 29057, "\u2581genus": 24147, "\u2581Pak": 12044, "\u2508": 31179, "hend": 12669, "\u0e15": 29567, "\u2581roku": 6739, "\u2581disable": 11522, "\u2581Carm": 18231, "\u2581tucked": 26391, "\u2581args": 4707, "std": 3719, "Old": 16237, "\u2581clicking": 24675, "rou": 518, "\u2581nog": 19340, "\u2581dreams": 12232, "achel": 14047, "uh": 8884, "\u2581SK": 16915, "LEASE": 25634, "ivers": 1588, "protocol": 12787, "\u2581civilian": 25120, "\u00e1n\u00ed": 16345, "\u2581warnings": 24052, "Har": 23653, "\u2581likes": 12672, "\u2581agenda": 20758, "\u2581anytime": 27760, "\u5458": 29602, "\u2581probable": 22124, "Slider": 26952, "\u0445\u043e\u0434\u0438": 7374, "sz": 5027, "\u2581charity": 20598, "\u2581Ru": 12562, "\u02b0": 30194, "\u2581mg": 18144, "\u2581gut": 16492, "\u2581father": 3140, "nen": 4588, "Capt": 24649, "\u2581feel": 1601, "\u2581arrow": 18623, "\u2581woman": 2971, "\u2581dispers": 27990, "Me": 7121, "Lookup": 19508, "\u0434\u0435\u0439": 17650, "\u2581registers": 23826, "\u2581\u2581\u2581\u2581\u2581\u2581\u2581\u2581\u2581\u2581\u2581\u2581\u2581": 569, "olen": 12115, "Expect": 15447, "\u2581algorithm": 9464, "\u2581alien": 17054, "FFER": 14291, "PECT": 5519, "\u2581Fac": 13924, "aders": 22199, "Ids": 11307, "icense": 1823, "issues": 19474, "\u2581\u0423\u043a\u0440\u0430\u0457": 15516, "\u2581Wa": 24867, "\u2581Menschen": 24820, "\uad50": 31012, "\u2581knows": 5960, "\u2581Family": 10712, "\u2581available": 2632, "\u2581Hab": 15729, "\u2581warmth": 21606, "\u2581worth": 4407, "\u2581per\u00ed": 27601, "\u2581Jin": 27794, "\u2581Washington": 5924, "\u2581D": 384, "plant": 18071, "\u2581CONDITIONS": 12231, "\u00f6k": 21201, "\u5b83": 29928, "\u1eed": 30389, "\u2581\u0439\u043e\u0433\u043e": 18136, "\u2581losing": 10121, "\u5340": 30741, "\u05b6": 30780, "\u2581bef": 23399, "\u2581Bry": 12767, "iew": 825, "\u2581dispatch": 14323, "ifies": 8961, "\u2581criminal": 11392, "\u2581weird": 10481, "\u2581zosta\u0142": 11686, "\u2581hooks": 26901, "power": 6468, "\u099a": 31531, "\u2581personas": 22796, "iba": 26365, "\u2581psychological": 18835, "\u2581debate": 12745, "assertEquals": 12135, "\u2581disk": 11295, "\u2581fortune": 19808, "watch": 10330, "ready": 1968, "\u3073": 31050, "\u2581Mun": 15818, "olent": 26346, "\ub798": 29889, "Key": 2064, "\u2581Organization": 21919, "\u00e4nger": 22436, "\u8d35": 31465, "\u2039": 29922, "\u2581football": 6569, "\u96ea": 30876, "\u2581mais": 5359, "\u2581personality": 13355, "\u2581measurements": 16080, "\u2581discussion": 8387, "\u2581comparable": 21973, "chiat": 20307, "\u2581declare": 13242, "\u2581tiny": 8887, "\u2581stro": 14680, "osta\u0142": 10406, "\u4e07": 30568, "\u2581\u0440\u0430\u0434\u0438": 23352, "\u2752": 31841, "\u5143": 29352, "mov": 18057, "\u2581pulls": 25484, "unlock": 8161, "getNode": 25908, "\u2581traffic": 8475, "\u2581util": 4479, "\u2581acid": 14433, "\u2581vendor": 24578, "\u03b6": 30123, "ieur": 22534, "\u2581Schul": 21494, "\u044a\u043d": 26561, "respond": 27092, "\u2581comm": 901, "\u2581prisoners": 17562, "\u2581bal": 4549, "oji": 27813, "\u2581opp": 3562, "\u2581Filip": 19991, "ze\u015b": 21902, "\u2581Water": 8632, "\u2581instructor": 27679, "\u00a8": 30312, "zh": 13881, "\u2581onChange": 27530, "etta": 16631, "\u2581manual": 15561, "\u2581heeft": 21006, "Press": 12954, "\u2581tender": 20602, "GENER": 26010, "\u2581\u2581\u2581\u2581\u2581": 355, "Follow": 28093, "\u30e0": 29808, "\u2581Lee": 8181, "\u2581Norman": 22545, "uff": 1292, "mk": 16259, "aily": 5186, "ks": 2285, "\u2581Hit": 11288, "\u2581cups": 19646, "\u2581approaches": 13945, "\u2581financial": 5593, "\u0441\u043f\u0435": 14220, "\u2581complete": 4160, "\u9000": 29980, "\u2581Cav": 24577, "\u0e16": 30491, "\u2581\u041e\u0441": 20203, "\u2581scrub": 25429, "\u2581Israel": 6532, "optional": 14496, "\u2581Im": 2236, "\u2581uniqu": 20988, "tabs": 24856, "\u2581IR": 14149, "\u2581cv": 19342, "\u2581wished": 15534, "\u102f": 30987, "\u2581row": 5150, "updated": 18169, "riers": 14189, "\u2581Config": 10566, "\u2581mag": 2361, "\u3044": 29132, "lage": 20537, "\u2581menos": 22148, "tar": 14689, "\u2581inwon": 27692, "\u2581classical": 13378, "\u05b4": 30225, "\u2581pione": 21235, "\u2581Judge": 20979, "filer": 27992, "\u2581FM": 23586, "\u2581swallowed": 23946, "oirs": 27986, "\u5f81": 30977, "\u2581Auf": 8914, "\u2581Jama": 26152, "uen": 8256, "|^": 16404, "\u2020": 28932, "\u2581insult": 17441, "\u2581assets": 12858, "hom": 11966, "\u2581Butter": 28182, "\u2581expansion": 11120, "Mem": 5768, "literal": 25853, "arden": 5699, "\u2581Sz": 8718, "izia": 24536, "\u2581Stockholm": 25529, "\u2581Rate": 27773, "\u2581tea": 9510, "zoom": 23915, "\u2581Bahn": 25774, "\u2581Door": 26519, "\u2581campaign": 5774, "\u7bb1": 30262, "\u2581foram": 23084, "\u2264": 30035, "Case": 6160, "\u2581affects": 20777, "\u2581Fat": 20373, "Canvas": 20573, "\u2581lovers": 24883, "ala": 4575, "\u2581toda": 26323, "roke": 7923, "uter": 20073, "material": 10595, "\u2581tf": 14618, "\u2581!!": 22459, "\u2581citt\u00e0": 20377, "\u2581underarter": 12872, "\u2581prolong": 24163, "\u2581revel": 17120, "ze": 1374, "\u21d4": 31559, "\u2581\u0430\u0431\u043e": 22860, "\u8def": 29361, "Src": 15886, "\u2581cd": 19958, "\u2581Better": 18862, "\u2581Pay": 9260, "cipl": 8935, "rio": 7189, "\u2581Gren": 18347, "\u2581trails": 28280, "\u2581\u0428": 6606, "empl": 2713, "\u2581requires": 6948, "\u0432\u0435\u0434\u0435": 14398, "\u043e\u0431\u0440\u0430": 17942, "\u2581rice": 13825, "ways": 1504, "\u2581tennis": 19552, "imb": 18931, "\u2581recommend": 6557, "Area": 12026, "\u0437\u043e": 3965, "\u2581bush": 25516, "\uc124": 30058, "\u5bbd": 30236, "FileName": 17060, "\u2581mu": 8453, "\u52a8": 29129, "\u2581camb": 15700, "\u2581provided": 3857, "\u4f9b": 29954, "default": 2833, "\u2581&(": 27029, "AIL": 26763, "FAULT": 6864, "Descriptor": 8482, "ascript": 15367, "\u2581assuming": 16347, "history": 15205, "Xml": 9911, "----------------": 1177, "\u2581airport": 14400, "\u2581circum": 7863, "\u2581Ald": 17545, "\u2581Bell": 11395, "chet": 24388, "\u2581discre": 23420, "\u2581Smith": 6717, "oc": 402, "\u2581servants": 21567, "\u2581myth": 13345, "\u2581Actually": 20290, "\u0937": 31118, "\u5c06": 29248, "\u043e\u043d\u0430\u043b\u044c": 11954, "\ubd88": 30665, "uit": 4405, "\u2581violent": 14643, "At": 3167, "\u2581Bibli": 19380, "\u2581function": 908, "fee": 26652, "MBOL": 16532, "Supp": 15653, "\u00f3wn": 16213, "\u2581[]": 3980, "Effect": 8460, "\u6545": 31063, "he": 265, "\u2581Kennedy": 15288, "\u2581para": 2646, "\u2581enjoyed": 10306, "\u2581stranger": 19625, "aux": 4601, "\u2581Ter": 7163, "\u2581Centre": 11304, "StatusCode": 19809, "\u2581Pont": 19745, "<0xBA>": 189, "chell": 16729, "\u05f4": 31603, "cted": 2147, "gence": 11986, "\u2581Pel": 18042, "\u2581map": 3341, "\u2581diagn": 12008, "ac": 323, "\u2581\u0447\u0435\u043c\u043f\u0438": 18961, "imen": 21538, "ioni": 6579, "\u2581Front": 13794, "APP": 16364, "\u2581integral": 15558, "\u2581venne": 20952, "ango": 8458, "\u2581provides": 5312, "ylon": 22956, "\u2581Statistics": 28091, "\u2581polar": 14955, "\u2581door": 2251, "WARNING": 18721, "endl": 15858, "\u2581Might": 28439, "athol": 23593, "\u2581Carl": 6675, "\u76d8": 30358, "\u0447\u0435\u0441\u043a\u0438\u0439": 22681, "CTOR": 20434, "\u2581vl": 14397, "\u2581Particip": 21804, "\u2581concepts": 16582, "\u2581gift": 7875, "abul": 19501, "\u2581fore": 2417, "\u2581backward": 19592, "<0x25>": 40, "\ud638": 29730, "\u2581ji": 28589, "\u2581\u0412\u0430\u0441\u0438": 26099, "!_": 19193, "Cost": 18032, "lr": 22259, "'\",": 27354, "\u2581ultimately": 12665, "\u2581Prince": 11567, "\u2581valued": 25309, "\u2581Tri": 9982, "\u2581beh": 1833, "un": 370, "bre": 2152, "olute": 13703, "itably": 25470, "\u2581imports": 28365, "\u2581honest": 6858, "life": 10387, "\u2581caut": 13831, "\u7701": 29670, "\u2581\u0411": 2216, "\u2581cu": 4014, "\u2581\u00c4": 18912, "ashes": 14650, "\u2581geld": 17704, "\u2581authorities": 12503, "\u2581bubble": 21424, "fte": 18584, "BUILD": 23972, "\u2581Pre": 4258, "\u2581beef": 21189, "iar": 9043, "maz": 3492, "Access": 6169, "opath": 23461, "\u2581exceptions": 20935, "\u2581advantage": 7859, "\u043f\u043e\u0440": 27593, "\u00e4\u00df": 25829, "'_": 16314, "nov": 20920, "Ir": 25112, "\u2581publish": 10094, "\u2581liegt": 18610, "\u2581deven": 24999, "\u2581Policy": 13077, "an": 276, "flash": 21473, "\u2581Book": 5737, "\u2581edge": 5358, "\u2581stra": 4512, "\u2581hy": 6521, "\u2581initiative": 19410, "ERN": 7920, "\u00b3": 29203, "\u223c": 30567, "abled": 2755, "\u2581Rah": 20398, "\u2581surprise": 8982, "\u2581shine": 27882, "\u2581mac": 8338, "\u0449\u0435": 4087, "\u2581noten": 13358, "\u0441\u0442\u0440\u0430": 8088, "\u2581completed": 7368, "\u2581picked": 7715, "button": 4559, "\u2581Victorian": 26839, "icon": 3790, "gs": 2626, "\u2581Mans": 24800, "\ud6c4": 30570, "TagHelpers": 21399, "pre": 1779, "\u65e9": 31121, "\u2581enh": 8050, "\u2581resolution": 10948, "\u0441\u0456": 7758, "\u552e": 30917, "pul": 27818, "\u2581RAM": 27850, "\u00e4t": 5291, "\u2581Cov": 19121, "\u043d\u043e\u044e": 19130, "\u2581determined": 7798, "\u0441\u043f\u0443\u0431\u043b\u0438": 26352, "\u2581political": 4355, "\u2011": 29694, "%;": 26403, "\u2581Latin": 13729, "\u30ca": 30081, "\u2581lawsuit": 28674, "\u2581TR": 6378, "\u30cf": 30483, "\u2581alto": 28077, "\u2581think": 1073, "zi": 4295, "\u2581administration": 10298, "\u2581relatives": 21668, "\u2581price": 4144, "\u2581attribute": 6836, "\u2581academ": 8853, "\u2581voc": 7901, "\u2581PS": 12993, "\u043b\u0435": 1125, "\u2581excluded": 25751, "\u2581volt": 9921, "\u2581splitting": 28578, "h": 28716, "\u2581Vector": 11650, "\u2581implement": 4808, "\u2581junio": 25942, "\u2581dear": 13095, "\u2581\u0160": 13688, "\u2581Phoenix": 23228, "origine": 26003, "acement": 6467, "\u2581Cycl": 27548, "<0xDC>": 223, "\u2581softly": 18345, "scriptstyle": 26715, "ropolitan": 22159, "phony": 22326, "Suppress": 22229, "\u270c": 31906, "SL": 6255, "\u2581Atlanta": 18279, "aph": 2366, "\u2113": 31442, "\u2581\"'": 13006, "\u25b2": 29760, "\u2581register": 4596, "\u2581identified": 10248, "\u2581pace": 13681, "\u2581dream": 4999, "\u845b": 31147, "\u2581Mam": 28388, "\u00edtulo": 18440, "\u2581Serial": 22696, "\u2581grinding": 23847, "\u0430\u0442": 17108, "\u2581Appendix": 26589, "\u2581Southern": 12031, "\u0280": 30764, "\u5c3d": 31430, "\u2581tomb": 19548, "andy": 10087, "ational": 1249, "ingly": 7381, "\u0119": 28864, "itative": 16462, "\u2581reporter": 19044, "fire": 9257, "\u2581v\u00e4": 15670, "\u2581d\u00e9partement": 22625, "\u2581operators": 12765, "agle": 17968, "info": 1817, "\u2581iz": 9345, "\u2581now": 1055, "\u2581\";": 15404, "dings": 23127, "\u2581China": 5077, "act": 572, "\u2581Ven": 10178, "Main": 9000, "\u0930": 29319, "Filters": 24261, "<0xCC>": 207, "\u2581quale": 22553, "\u00e9tait": 23133, "ronic": 7624, "\u2581piano": 13221, "C": 28743, "strument": 15549, "\u2581combine": 17470, "\u2581\u00c9": 4926, "\u2581##": 531, "\u2581Angela": 26991, "\u2581egy": 9064, "\u2581imped": 27988, "\u2581func": 2745, "-----------": 26684, "\u2581Sic": 22664, "achten": 28579, "\u2581[[": 8070, "\u5b9c": 31917, "\u2581output": 3825, "\u2581owns": 25061, "ultane": 14133, "\u2581\u043e\u0434": 5524, "\u2581poly": 12371, "eme": 5037, "ationship": 18798, "\u7aef": 29594, "azzo": 24611, "Formatter": 23533, "\u2581ptr": 13814, "\u2581germ": 23157, "STREAM": 22708, "MC": 7814, "\u2581stats": 14269, "nico": 24280, "\u2581Roc": 22152, "\u2581shifts": 23573, "ARY": 10713, "\u2581scient": 6269, "\u2581interface": 4971, "----------": 16417, "Rev": 11165, "\u2581imaginary": 28374, "\u2581dirty": 13485, "rgb": 14226, "glass": 23846, "\u2581wenn": 24718, "\u2581moy": 19802, "loader": 12831, "});\r": 26636, "ntax": 9656, "idge": 4307, "\u2581XVI": 23528, "pyx": 9004, "\u0141": 29042, "must": 19959, "\u2581steel": 9445, "([]": 15993, "\u2581streets": 10468, "\u2581investig": 6694, "\u2581museum": 13041, "<0x63>": 102, "\u2581liability": 22581, "\u2581Politics": 25894, "\u2581lavor": 21785, "\u2581permit": 12748, "\u2581skull": 21181, "\u2581pursue": 18619, "_);": 13400, "\u2581excl": 5420, "lc": 24228, "\u901f": 30029, "\u2581gradient": 21135, "OK": 4903, "entially": 7346, "\u2581traded": 27111, "reate": 2730, "\u2581),": 6223, "\u2581Tun": 22756, "\u2581This": 851, "ORDER": 20938, "\u2581Gil": 12416, "\u043b\u043e\u0441\u044c": 14119, "Logger": 9998, "++": 1680, "\u53bb": 29651, "hole": 20265, "friendly": 18109, "EX": 2335, "\ud83d\ude0a": 30464, "\u2581South": 3658, "\u2581utterly": 24354, "ip": 508, "\u2581Besch": 26231, "\u2581farther": 20936, "Program": 14352, "\u2581inaug": 17946, "(%": 16256, "urt": 3525, "ierten": 18271, "\u2581swift": 20029, "\u2581their": 652, "\u0432\u043e\u0435": 19224, "Commands": 27458, "\u2581bowl": 13494, "\u2581Month": 19026, "\u2581Prest": 24478, "\u2581WM": 27704, "\u1f00": 30529, "\u2581shouted": 14726, "\u2581hon": 3243, "\u30a6": 29736, "\u2581products": 4076, "Unique": 20730, "ustain": 27301, "\u0e0a": 29851, "\u2581vessel": 21081, "opl": 13317, "oves": 8803, "POINT": 21085, "atto": 12676, "\u2581Members": 17131, "\u2581buffer": 5496, "\u2581disag": 12989, "\u2581consolid": 22968, "ski": 5253, "\u2581impact": 5088, "\u2581damages": 25547, "\u2581M\u00e4r": 16851, "\u2581conoc": 16022, "headed": 25767, "\u2581\u0432\u043e": 2890, "\u2581pro": 430, "\u2581magnitude": 18658, "cb": 6145, "\u00e8ncia": 19620, "notes": 18787, "\u2581demonstrate": 16499, "\u2581really": 1528, "nit": 28023, "\u2581explicit": 9629, "\u9636": 31177, "\u0434\u044f": 10926, "\u2581waiting": 5345, "*>": 27924, "Bal": 13450, "\u2581Param": 10938, "Regex": 22033, "\u2581activities": 6290, "\u2581marble": 26617, "\u2581dun": 27421, "action": 1774, "\uc904": 31060, "\u2581passes": 15167, "acion": 13995, "iao": 23985, "timer": 10179, "greg": 10114, "++;": 5732, "\u2581Expect": 28468, "\u2581Lam": 17018, "\u2581se": 427, "ERNAL": 23734, "arette": 18409, "ely": 723, "govern": 26447, "\u2581\u043c\u0430\u0440": 13427, "comput": 21862, "\u2581show": 1347, ".:": 12813, "\u2581chose": 10008, "\u7814": 30943, "\u2581\"#": 11441, "\u0432\u0430\u044f": 20026, "\u2581sank": 24215, "=\"{{": 21686, "\u2581tempo": 16386, "mapsto": 24719, "Confirm": 22205, "words": 10366, "\u2581Popular": 22864, "\u2581horn": 16624, "\u2581equipment": 7108, "\u2581sleep": 4289, "#[": 8801, "\u2581sisters": 17118, ">,": 6550, "\u2581vm": 13337, "step": 7691, "\u2581flav": 15637, "\u2581abstract": 11576, "\u2581Fu": 11857, "\u2581initiatives": 25060, "\u2581Cr": 4603, "\u2581organizations": 9909, "ata": 563, "\u2581siglo": 22017, "loss": 9195, "\u9577": 30531, "\u6e56": 30480, "ape": 1748, "\u2581respectively": 8628, "idents": 6640, "\u0424": 28897, "\u2581plaats": 18886, "\u2581at\u00e9": 24961, "\u2581Bar": 3011, "\u7a7a": 29273, "\u6848": 30002, "\u2581x": 1318, "Server": 5334, "ruption": 12992, "Operand": 14074, "inline": 10265, "Les": 15685, "\u2581buildings": 9702, "\u2581tug": 24197, "\u2032": 28938, "contents": 15931, "Port": 6411, "\u2581CSS": 17922, "\u2581dod": 22216, "\u2581colours": 22137, "\u2581governor": 17116, "\u2581simply": 3768, "\u2581cit": 5963, "ials": 11974, "\u0441\u043e": 2688, "\u2581Rule": 19712, "\u2581inner": 7450, "\u2d53": 31922, "\u0137": 31511, "\u2581Jackson": 9955, "lig": 4310, "Audio": 13361, "\u2581Joh": 8870, "apse": 9772, "\u2581caf": 18302, "getType": 16053, "ague": 3512, "\u2581attrs": 20793, "\u2581boring": 19757, "ardon": 25021, "\u2581reserved": 9144, "onder": 9816, "^*": 7304, "FEATURE": 23578, "\u00fc": 28837, "\u2581serving": 10732, "HA": 13307, "\u2581Summer": 13211, "isen": 10555, "\u00e4hlt": 25409, "sat": 23258, "\u2581apply": 5580, "ancell": 13759, "\u2581DOM": 21045, "\u2581Charles": 6427, "\u2581\u0433\u043e\u0434\u0438\u043d\u0435": 14027, "ame": 433, "REEN": 25755, "\u2581\u0432\u0456\u0434": 6233, "havior": 13625, "\u2581Those": 8827, "\u2581rele": 4444, "ixa": 27375, "Selection": 10688, "\u2581Urban": 22007, "enza": 11409, "\u2581judg": 11866, "\u2581traged": 21389, "\u3087": 31628, "}\\\\": 13085, "aje": 11237, "\u2581nin": 11184, "mux": 27884, "\u2581joining": 15508, "\u2581\u0413\u043e": 10142, "\u2581gri": 15854, "lessness": 28015, "\u2581balcon": 26472, "\u2581Navy": 12796, "Idx": 12157, "Bean": 12366, "ategy": 5167, "\u2581\u0431\u0438": 8843, "\u2581Clean": 14510, "\u2581entr": 7142, "PAGE": 17711, "\u2581thousand": 8028, "Coord": 15082, "\u2581flo": 2175, "\u2581\u0427\u0430": 24695, "\u2581dummy": 24084, "\u2581Stanford": 28116, "Notification": 13756, "\u2581effectiveness": 23798, "\u2581tiene": 16262, "\u2581gear": 13133, "ological": 4423, "()),": 11168, "iver": 2023, "ants": 1549, "\u2581Ang": 3663, "\u2581store": 4143, "RG": 17814, "\u2581generates": 26396, "\u00e4h": 6533, "\u2581Meet": 23859, "abol": 21530, "Array": 2712, "\u2581pure": 7972, "\u2581Raf": 21926, "loe": 27823, "\u2581product": 2093, "\u2581temps": 12974, "interrupt": 23801, ")\"": 12159, "\u0447\u0435\u0441\u0442\u0432\u043e": 26029, "\u2581skin": 4759, "\u2581evalu": 6548, "image": 4075, "\u2581Japan": 4720, "le": 291, "Ex": 966, "\u2581resur": 28308, "<=": 25796, "isches": 23458, "\u604b": 31472, "\u2581updating": 26187, "\u2581$-": 24279, "\u2581have": 506, "azor": 18426, "\u2581Lost": 22842, "Visible": 10082, "\u2581convinced": 13746, "\u064d": 31993, "veh": 25973, "\u2581nic": 15750, "\u2581Sup": 8931, "\u2581einen": 7897, "\u2581SQL": 13208, "\u2581Stefan": 27656, "\u2581Prote": 11425, "FAILURE": 21024, "\u0917": 30167, "\u2581Analysis": 19442, "\u043d\u044b\u0435": 5193, "itted": 3309, "\u2581toilet": 19580, "Save": 11343, "grav": 25849, "\u2581sec": 5267, "\u2581resp": 10840, "over": 1483, "Compiler": 17771, "}}$.": 25362, "\u2581ret": 1699, "udi": 11091, "\u2581India": 5558, "nick": 22554, "\u2581opposition": 14218, "\u5728": 29010, "izer": 4024, "loor": 9527, "toire": 24502, "\u2581equipped": 17042, "Ident": 8876, "\u2581can": 541, "VC": 17832, "ned": 12097, "\u2581prec": 4467, "\u2581neighbour": 18583, "<0x5A>": 93, "sted": 17184, "\u2581productive": 22779, "\u2581fiction": 14344, "\u0442\u0435\u043b\u044c\u043d\u043e": 21195, "\u2581improved": 11957, "\u5834": 30016, "CAL": 22591, "\u2581mou": 22182, "\u2581gre": 3656, "ension": 2585, "\u043e\u0433\u0440\u0430\u0444\u0438": 14784, "rm": 1737, "\u2581series": 3518, "vor": 11766, "\u2581programs": 7034, "KK": 22525, "\u2581bug": 10079, "\u2581failed": 4679, "\u2581plenty": 8969, "\u03bd": 28976, "cas": 11768, "\u2581Current": 10929, "\u2581Wor": 22366, "ince": 1261, "\u2581\u0412": 1519, "\u2581folk": 17873, "Management": 17997, "gn": 4206, "ifference": 21423, "when": 11233, "\u0441\u044c\u043a\u043e": 5205, "bon": 5997, "\u2581hundreds": 10524, "fo": 902, "\u7d2f": 31719, "r\u00eda": 23048, "crtc": 22801, "\u2581ante": 20706, "\u04bb": 31141, "\u2581insane": 21295, "\u00f6ffent": 19596, "\u2581buck": 9918, "\u2581tournament": 14809, "oting": 7695, "zung": 25397, "FORM": 9357, "IBUT": 23148, "stop": 6898, "\u2581Ma": 6068, "any": 1164, "\u2581Return": 4571, "Migration": 25901, "\u2581proves": 25832, "\u2581\u0441\u0456": 23964, "\u2581Karen": 20220, "smithy": 23512, "click": 6650, "ash": 1029, "bitr": 10642, "\u001a": 30759, "\u2581delayed": 21532, "igration": 7491, "Vars": 27756, "\u2581chest": 8118, "\u5c3c": 30854, "OPEN": 20778, "\u2581SB": 28520, "\u2581inode": 18177, "\u2581Game": 8279, "\u2581Camp": 6143, "\u2581ongoing": 15260, "PHP": 24612, "\u2581scal": 10431, "phone": 6690, "rifice": 17514, "bool": 5416, "\u2581development": 4099, "ibling": 25641, "\u2581Tre": 9485, "derive": 21303, "icient": 4065, "gal": 7846, "\u2581laptop": 19891, "\u7af9": 31715, "\u2581\u044d\u0442\u0438": 27335, "\u2581\u0442\u043e\u043c": 21817, "\u2581\"@": 14604, "\u00f3r": 11240, "\\\\": 2214, "\u2581shout": 11428, "\u2581conqu": 17095, "assemb": 15351, "essa": 11826, "Fragment": 13132, "oct": 22008, "\u2581experience": 2659, "\u2581permanently": 26815, "\u2581allowing": 9836, "\u4fa7": 30994, "\u2581borders": 22902, "boldsymbol": 8033, "cv": 12750, "\u2581StringBuilder": 22380, "\u2581Shakespeare": 19155, "\u723e": 31827, "Event": 2194, "\u2581possessed": 26132, "\u2581cookies": 15648, "threads": 26202, "\u00ff": 30281, "\u2581said": 773, "\u2581\u00cen": 21693, "\uc138": 29721, "\u30a2": 29322, "\u2581earnings": 24431, "Insert": 13851, "sche": 8203, "Will": 12695, "istration": 8585, "\u2581te": 711, "unes": 11056, "\u255a": 30706, "\u2581senior": 9362, "\u2581Roth": 23134, "Processor": 17088, "\u2581surgery": 13301, "ive": 495, "\u2581GM": 27299, "\u2581Bald": 24794, "\u2581officer": 8119, "\u2581Stan": 9034, "\u0431\u0435": 5744, "\u2581suspected": 18648, "\u2581pointer": 10300, "\u1ec9": 30714, "\u2581Cultural": 24974, "\u5e01": 30735, "\u2581breakdown": 26987, "\u2581DB": 11664, "Scene": 17781, "\u2581elabor": 16252, "ippi": 17609, "\u2581konnte": 19059, ">(\"": 10622, "texttt": 19206, "rant": 6804, "only": 5041, "\u2581palace": 20695, "Color": 3501, "LD": 12093, "illance": 22740, "\u2581loading": 14617, "Tags": 14283, "\u2581seinem": 17342, "\u2581Dum": 28512, "\u2581Town": 8897, "\u2581peas": 27649, "stream": 3888, "\u2581prefer": 5273, "\u2581get": 625, "\u2581nail": 25592, "<0xE4>": 231, "\u2581rooms": 9698, "reject": 26394, "\u2581saw": 2672, "\u2581pou": 8631, "decl": 12114, "\u2581\u0424\u0435": 18329, "Marshal": 24374, "\u2581gepubliceerd": 17811, "\u2581Catal": 18959, "amento": 6566, "\u2581School": 4228, "unge": 21614, "use": 1730, "\u2581anci": 21267, "\u2581Block": 9063, "View": 2086, "Ref": 3680, "Check": 3828, "anean": 23554, "many": 24081, "**************": 20798, "aurus": 24308, "ition": 685, "\u2581Valentine": 28495, "\u2581het": 3010, "\u2581Because": 5518, "\u2581States": 3543, "\u0ab0": 31427, "\u2581rel": 1016, "izen": 20084, "uela": 13482, "\u2581Hung": 15171, "\u2581Consider": 11772, "\u2581prosper": 20814, "\u2581wh": 388, "\u2581pregnancy": 18974, "\u2581ambitious": 28213, "\u2581calc": 26930, "\u2581relatively": 10102, "Az": 13230, "Copy": 8546, "sort": 7653, "\u2581delicate": 21829, "rie": 3552, "deck": 23986, "\u2581challenged": 24730, "\u021ba": 25814, "\u2581ui": 12842, "\u2581secondary": 13461, "\u2581simpl": 9878, "\u2581ant": 2725, "\u2581Sc": 2522, "\u2581Right": 9554, "\u042f": 28937, "\u2581le": 462, "\u2581Conserv": 12200, "Mobile": 23090, "TING": 16567, "\u2581ending": 12826, "\u2581fd": 18111, "\u0432\u0448\u0438": 10697, "\u2581this": 456, "INPUT": 20309, "\u2581kam": 14899, "\u0431\u0430": 4820, "\u2581laying": 27587, "if": 335, "SELECT": 10696, "ping": 2917, "oke": 2656, "generate": 15001, "\u2581affili": 11795, "\u2581befind": 19856, "inery": 17171, "dropdown": 21898, "\u2581cooked": 22067, "client": 3305, "ecute": 5570, "imento": 9901, "\u2581cone": 22880, "\u2764": 29673, "\u2581between": 1444, "\u2581Party": 6636, "\u0448\u0443": 16672, "\u2581approaching": 19940, "ILE": 9316, "Fall": 28072, "\u2581Edit": 12838, "\u8de8": 31864, "\u2581Factory": 24264, "\u2581=\\": 17988, "\u0925": 31783, "\u2581k\u00f6": 8392, "\u2581center": 4982, "oya": 27338, "\u2581correct": 4714, "\u2581lust": 28249, "\u0c15": 31985, "Red": 7516, "plo": 22433, "Activity": 8559, "\u0386": 31392, "ELL": 25035, "\u2581Lamb": 26247, "alom": 25759, "\u043c\u0435\u043d": 4029, "\u2581aest": 20429, "\u2581there": 736, "\u044c": 28822, "Emitter": 26264, "\u00e9ric": 13165, "\u2581bust": 20338, "\uc54a": 30104, "\u2581Element": 11490, "\u2581Process": 10705, "switch": 7252, "Done": 19524, "\u60c5": 29418, "bst": 14370, "common": 5348, "\u2581Halloween": 28016, "anked": 27527, "\u2581clo": 23390, "\u30c6": 29610, "\u00e1tica": 26410, "\u2581fortunate": 28595, "\u2581instrument": 10623, "isa": 7682, "\u2581buy": 3848, "\u2581soup": 18851, "ae": 4643, "imate": 3314, "\u2581Yet": 8516, "\u2581\u00e8": 3473, "buffer": 4260, "\u5de8": 31786, "\u2581attorney": 15085, "\u2581})": 4984, "\u2581personally": 10897, "PER": 6512, "ifferent": 15791, "\u2581ninete": 18367, "cci\u00f3n": 9699, "\u2581Ale": 9766, "\u2581Industry": 21268, "\u2581cursor": 14622, "\u2581invested": 24161, "\u2581dated": 21847, "a\u0142": 3862, "worth": 11360, "rem": 1569, "Results": 12220, "\u2581care": 1656, "<0xC5>": 200, "eg": 641, "\u0441\u043b\u0435\u0434\u043e\u0432\u0430": 23050, "\u2581shorter": 19367, "\u2581resources": 5823, "\u2581Diese": 21988, "plicit": 6026, "\u2581disease": 8030, "('/": 10815, "\u30da": 30534, "South": 26813, "\u2581McG": 18407, "parency": 23767, "\u2581Fr": 1361, "\u2581known": 2651, "\u2581peg": 21979, "aken": 2589, "DAT": 23775, "English": 27871, "Catalog": 27937, "\u2581suspic": 13510, "\"])": 18073, "\u2581cnt": 27160, "bur": 7945, "\u2581ceremon": 24840, "\u63db": 30970, "\u2581Julie": 22706, "oud": 2456, "\u2581Allow": 26012, "hor": 1752, "\u2581will": 622, "\u2581bald": 26128, "\u2581pit": 11265, "\u2581Bent": 22094, "categories": 24888, "\u2581item": 2515, "-->": 26345, "El": 5773, "\u2581logged": 27036, "\u2581Titel": 23358, "\u2581compatibility": 25419, "\u2581jumping": 23058, "\u2581Guerra": 21913, "\u2581employ": 3263, "\u10dc": 29701, "rition": 17791, "izio": 19650, "ener": 790, "umber": 1031, "the": 1237, "innings": 21543, "ipping": 10206, "\u2021": 30053, "analysis": 23206, "\u305a": 31019, "VS": 23999, "\u2581sympathy": 26453, "\u2581detector": 25979, "local": 3959, "\u2581\u2198": 25506, "\u2581Dom": 6711, "\u2581\u043e\u043d": 10640, "\u2581Regular": 28187, "\u2581depression": 14992, "\u09bf": 29857, "\u2581\u043b\u0435": 7622, "TYPE": 3657, "\u2581Us": 4547, "\u2581distances": 24224, "req": 3644, "\u2581Kre": 13326, "classList": 24253, "poly": 20788, "\u2581nd": 21706, "ud": 554, "\u2581enables": 18156, "\u96c5": 31178, "\u2581Mexican": 17092, "aling": 4726, "\u2581duration": 11964, "ashington": 5542, "\u043e\u0442": 15242, "\u2581ihm": 17934, "\u5220": 29327, "\u2581concrete": 12230, "Christ": 17701, "TO": 3957, "mix": 23350, "ello": 4508, "\u2581Send": 12710, "emb": 20603, "\u2581\u043f\u0456": 28442, "Geometry": 20052, "Mark": 8157, "\u2581dalla": 12102, "\u010d": 28862, "DIP": 24090, "\u2581plate": 9703, "IP": 2665, "\u043a\u0441": 7351, "\u2581passenger": 18990, "\u09b7": 31980, "}\",": 13394, "\u2581successfully": 10130, "\u2581schools": 7373, "\u2581burning": 13136, "\u2581fix": 6293, "\u043d\u0438\u0435": 2676, "iding": 3269, "\u4ee5": 29074, "connect": 7182, "\u0441\u0442\u0430": 1621, "append": 3308, "\u2581eb": 19049, "Query": 3294, "\u2581\u043e\u0431\u043b\u0430\u0441\u0442\u0438": 14973, "tos": 28047, "Selected": 9062, "\u2581deployed": 26694, "trace": 9213, "\u2581quant": 4664, "\u2581Golden": 14739, "ategories": 14922, "IN": 775, "\u2581relaxed": 18788, "mine": 16350, "\u2581Ana": 23103, "\u2581haven": 6253, "aki": 10270, "\u2581widely": 12575, "execut": 15873, "\u2581implementation": 9786, "~$\\": 24319, "\u043d\u044b\u0439": 4086, "annels": 7229, "'": 28742, "\u2581equation": 8777, "\ud83d\ude4f": 30768, "\u03b3": 29101, "snapshot": 23932, "David": 28396, "\u2581largely": 12282, "cp": 4743, "ics": 1063, "\u2581ask": 1460, "helpers": 19943, "PASS": 20899, "\u2581Pos": 8202, "\u2581scan": 12794, "Utils": 5896, "\u2581sal": 3823, "\u2581competed": 27406, "repo": 21150, "\u2581Conse": 26300, "entities": 26644, "<0xEC>": 239, "oman": 8322, "\u2581ment": 4498, "resc": 25684, "\u2581finishing": 19564, "\u0441\u043a\u0443\u044e": 20717, "\u7684": 28914, "\u2581dans": 2422, "\u2581Rs": 28279, "\u2581downtown": 18530, "NonNull": 22247, "\u2581Foundation": 6476, "amer": 6962, "integr": 16273, "\u2581digest": 18922, "\u2581jest": 10572, "fers": 17556, "\u2581Brothers": 22793, "lint": 18916, "\u0092": 29068, "\u2581CONTRACT": 26448, "ication": 3696, "\u2581apolog": 15884, "\u2581les": 1514, "istribution": 12074, "irtual": 4757, "\u2581portfolio": 19125, "Mapping": 10643, "\u2581Fran": 26578, "\u2581accommod": 11810, "idays": 16642, "\u2581Seth": 28407, "\u2581schedul": 10119, "\u2581impossible": 8313, "leans": 20803, "\u2581wid": 7744, "\u2581dram": 9473, "\u2581Kultur": 27929, "\u2581vault": 26850, "VERSION": 10147, "setText": 15206, "Character": 15962, "\u2581premium": 16317, "elihood": 18538, "\u2581Clara": 27901, "pas": 22328, "arel": 24104, "\u2581\u0444\u0438\u043b\u044c": 21454, "browser": 13612, "\u067e": 29483, "iful": 3982, "oenix": 21075, "Neg": 21436, "\u2581dominated": 20135, "\u2581NA": 20258, "\u2581Whit": 18186, "\u2581Friend": 13109, ")^{\\": 23022, "iting": 4328, "\u2581use": 938, "\u2581herman": 27311, "conduct": 27835, "encial": 27285, "olas": 16836, "\u4ea1": 31796, "\u5f71": 30083, "\u2581log": 2085, "\u2581disappointment": 26820, "\u2581Qt": 20975, "\u2581do": 511, "\u2581Easter": 26402, "\u2581partir": 12599, "\u2581mother": 3057, "\u2581eyes": 2282, "\u2581Mit": 6684, "\u2581ignorant": 27972, "\u2581smoking": 17105, "<0xA3>": 166, "end": 416, "Associ": 21515, "\u2581<?": 7299, "acies": 22454, "\u043b\u044c": 1049, "\u2581east": 9005, "then": 5863, "\u2581Bernie": 26009, "\u05d5": 29006, "\u7b11": 31364, "\u2581motivated": 22403, "\u8a72": 31688, "\u2581religious": 8553, "\u2581pocket": 10585, "\u2581client": 3698, "\u0441\u0442\u0443\u043f\u0430": 19651, "\u2581Deep": 14972, "\u2581convey": 18887, "\u2581afin": 28389, "\u2581veterans": 28041, "YN": 26687, "\u2581Story": 13689, "\u2581Sym": 12356, "IL": 2234, "\u2581Rand": 16253, "TextBox": 27828, "\u2581Hu": 16168, "\u2581mari": 28555, "\u2581square": 7930, "lli": 25137, "oca": 8672, "based": 5527, "\u2581hid": 18750, "}^{(": 13025, "\u2581PH": 11063, "sr": 13489, "\u2581transformation": 12958, "osis": 9795, "\u2581\u0421\u0442\u0430\u043d\u043e\u0432\u043d\u0438\u0448\u0442\u0432\u043e": 21160, "\u2581successful": 6053, "\u2581Nothing": 11081, "\u2581Pear": 16397, "rez": 11223, "\u2581appeal": 13650, "\u2581shooting": 11743, "\u2581exemple": 26260, "\u2581Outside": 25116, "ACC": 26749, "PHY": 21852, "\u2581\u0432\u0438": 3542, "Empty": 6027, "\u0639": 29040, "\u2581haut": 24373, "\u6280": 30021, "\u2581denotes": 21481, "\u2581ownership": 13965, "ile": 546, "\u2581caf\u00e9": 28345, "\u2581TYPE": 18143, "\u2581license": 6801, "pod": 16339, "\u2581\u0413\u0443": 24672, "\u2581Beck": 16596, "\u2581Nazi": 21217, "/_": 23762, "\u903b": 30928, "\u2581prep": 5015, "\u2581shadow": 10504, "$,": 1777, "\u2581participation": 17002, "int": 501, "\u2581\u0437\u0435\u043c": 19868, "SEE": 27670, "fang": 17907, "\u2581\u041d\u0430": 3760, "Spec": 4947, "\u2581#!": 20025, "erve": 5803, "\u2581correspondence": 24911, "\u0448\u0435\u043d": 15436, "atin": 12844, "\u2581\u2581\u2581": 2287, "\u2581told": 2240, "\u2581positive": 5278, "iation": 6752, "\ub8e8": 31602, "\u2581Environment": 14802, "\u00e8ve": 24893, "vf": 25817, "\u0279": 31931, "ads": 6722, "ieve": 18388, "ijn": 6364, "\u9646": 30941, "\u2581\u0431\u043e\u043b\u0435\u0435": 21314, "\u2581d\u00eda": 22062, "\u2581Joshua": 28302, "sk\u00e9": 20079, "\u2581papers": 10374, "\u2581Sn": 10881, "\u2581bezeichnet": 26314, "\u2581lift": 7818, "\u2581strengths": 28136, "}},": 10781, "\u043e\u043d\u0435": 23703, "\u77e5": 29661, "plier": 10724, ")?": 11840, "\u00f3\u0142": 12023, "printk": 18548, "\u2581two": 989, "\u2581Age": 14065, "\u2581raw": 8435, "ierz": 25076, "\u62f7": 31850, "\u2581depuis": 14661, "ados": 3482, "rezent": 24662, "\u2581everyone": 3376, "\u2581altern": 5720, "\u2581rodz": 27895, "\u2581acqu": 5579, "\uaca9": 31110, "\u2581Him": 14649, "inition": 3775, "\u2581Hum": 17442, "\u2581anche": 9372, "XT": 25078, "\u2581Nash": 20888, "arium": 26207, "\u56e2": 30756, "\ubc18": 30192, "\u2581soldiers": 8996, "\u2581detected": 15538, "\u2581Next": 8580, "legt": 28661, "\u2581beyond": 5298, "ular": 1098, "UND": 10933, "\u2581tart": 19373, "\u2581ty": 13936, "ect": 530, "NOWN": 21016, "\u044e\u0442\u044c\u0441\u044f": 25582, "itled": 13245, "uo": 27736, "\u043e\u0440": 3135, "\u2581codes": 14760, "\u2581Pink": 24273, "orer": 14465, "\u2581wis": 14729, "\u2581GFP": 23577, "\u2581Ferd": 24768, "\u2581reporters": 25875, "ancers": 25799, "process": 5226, "\u8fbe": 30079, "\u0938": 29671, "\u2581cada": 14150, "\u2581journey": 8123, "ail": 614, "ickets": 25655, "Height": 5814, "tail": 11557, "\u2581hyper": 11503, "\u2581mic": 15644, "\u2581Ward": 19512, "prototype": 6633, "orf": 7800, "\u2581smiling": 15603, "GTH": 15786, "uck": 1384, "USED": 17034, "\u2581tri": 2629, "schema": 10258, "\u2581Would": 11312, "\u0451\u043b": 17374, "\u2581Bal": 9573, "\u2581hug": 13620, "\u2581associate": 18560, "\u2581rocks": 15599, "\u2581d\u00e9cembre": 19344, "\u2581multip": 17669, "\u2581Py": 5961, "implement": 26922, "\u2581($": 3180, "\u2581porch": 22252, "dx": 12576, "\u2581Protection": 21154, "\u2581collabor": 8248, "\u2581ore": 14712, "Payment": 19835, "\u2581registration": 14409, "kim": 23159, "arts": 8060, "\u2581Arr": 20037, "\u2581plusieurs": 17071, "\u2581\u0441\u043a\u043e": 27999, "\u2581Histor": 10236, "command": 6123, "\u2581guidelines": 18392, "ohn": 1953, "ologist": 12418, "\u2581Valley": 10509, "rowser": 5736, "(()": 10289, "\u2581crate": 14834, "\u2581AC": 11949, "\u8f93": 29226, "club": 25169, "ingle": 5810, "\u05e6": 29639, ",\\,\\": 28690, "rous": 20162, "ss": 819, "ype": 571, "\u2581repository": 21177, "\u2581Ts": 17718, "Dark": 25732, "datetime": 16058, "\u2581intel": 9568, "c\u00f3w": 24325, "\u2581thous": 5003, "\u2581lob": 27806, "une": 1802, "\u2581numer": 5539, "\u2581array": 2293, "\u2581properties": 5508, "\u2581Wing": 26523, "\u00e1ct": 28062, "\u2581princip": 4061, "\u0445\u0435": 21207, "\u2581oxygen": 21058, "\u0417": 28896, "wij": 24231, "\u2581fro": 8169, "chat": 12932, "\u2581meal": 11314, "acia": 12990, "known": 4717, "throw": 10847, "\u1e63": 29606, "xF": 7355, "\u0447\u043d\u0456": 26986, "ner": 1079, "bridge": 15401, "\u2581\u0434\u0435": 3697, "\u8840": 30855, "\u2581Dick": 13081, "\u2581kt\u00f3re": 26320, "amaz": 13676, "\u2581unc": 9967, "\u2581ott": 19137, "erv": 784, "\u0432\u0435\u0440\u043e": 27489, "\u2581imperial": 20118, "\u01d2": 30896, "Seq": 25441, "\u2581democracy": 17548, "iza": 13360, "\u2581Esta": 25653, "\u2581accident": 8318, "\ud560": 29723, "\u2581m\u00e5n": 24481, "newcommand": 20570, "\u2581archae": 28426, "\u2581realm": 18745, "\";": 1599, "\u2581Chicago": 8449, "\u9645": 30604, "lymp": 7184, "ugins": 10324, "\ubc14": 30140, "\u2581prisoner": 24040, "\u2581\u0417\u0430": 6369, "\u2581\u0434\u0440\u0443\u0433\u0438": 14365, "\":": 1264, "\u2581Scotland": 14322, "annon": 18182, "\u0159": 28883, "rios": 18731, "iated": 27267, "\u2581vehicle": 8114, "\u76f4": 29589, "orage": 3374, "sson": 14542, "\u2581jul": 17521, "\u2581filter": 5531, "\u2581parents": 4386, "\u2581\u043e\u0431\u0440\u0430\u0437\u043e\u0432\u0430": 25160, "\u2581MAX": 11651, "\u2581Sean": 20468, "Keys": 10492, "elfare": 18029, "\u2581RE": 4515, "antry": 23379, "us": 381, "Small": 22349, "Tip": 19149, "\u2581these": 1167, "\u2581Cap": 6275, "\u2581beautiful": 4672, "six": 20410, "\u2581Unfortunately": 13445, ")}\\": 11688, "\u2581somebody": 12421, "\u30b6": 30362, "\ub2a5": 30364, "i\u010d": 13096, "]);": 3759, "\u2581univers": 5137, "\u2581Police": 12338, "\u1eaf": 30429, "\u2581truth": 5307, "className": 17220, "\u2581sensible": 26581, "\u2581beneath": 10042, "\u6307": 29223, "\u2581school": 2052, "\u2581pregn": 10134, "\u2581branch": 9799, "ativo": 20937, "\u2581\u041e\u0442": 18998, "\u2581lap": 14348, "\u2581retired": 15451, "\u2581modify": 9239, "\u2581cart": 7548, "\u2581months": 3370, "\u2581nove": 9076, "products": 20042, "\u2581Et": 13542, "\u672c": 29119, "Del": 9489, "\u2581leader": 7059, "Word": 15170, "\u2581conj": 11365, "zeta": 10770, "\u2581Netflix": 25606, "\u2581panel": 8357, "Scan": 17272, "\u5e78": 31339, "\u611b": 30678, "\u2581andra": 26622, "\u2581Each": 7066, "\u2581feet": 4051, "\u2581manager": 7056, "\u2581Deutsch": 14157, "complex": 19612, "\u2581move": 2318, "Reb": 26934, "\u2581employment": 14087, "intent": 28559, "Dot": 25520, "\u2581explan": 10928, "\u2581repe": 5683, "\u2581stud": 1362, "\u2581(+": 28367, "\u043b\u0442\u0430": 22130, "\u2581typical": 10842, "\u2581Philosoph": 22156, "mem": 3271, "\u2581calories": 24336, "\u2581Room": 14463, "\u2581namely": 19902, "rupted": 17488, ")){": 20474, "AppCompat": 11707, "\u042b": 30584, "dorf": 24705, "\u043b\u043b\u0438": 22623, "\u2581klik": 15469, "mask": 5274, "\u2581mint": 20512, "asse": 4550, "\u2581Amy": 17723, "\u2581Toy": 20944, "\u2581killer": 18353, "river": 5350, "kle": 16993, "Segment": 17437, "ent": 308, "jo": 4881, "icking": 16402, "\u2581Mind": 14683, "\u2581dug": 21616, "Stat": 6181, "\u028f": 31575, "Private": 12455, "oda": 10769, "\u2581Appe": 24876, "\u2581Massachusetts": 16255, "tmp": 4964, "\u1ec3": 29910, "\u2581\u00een": 5554, "\u2581coffee": 7045, "Mar": 7308, "\u2581Please": 5919, "\u043c\u043e\u0436": 27603, "\u2581Ar": 1010, "\u2581za": 6670, "\u2581\u0444": 2638, "oding": 5195, "\u2581rend": 6884, "\u2581crit": 3190, "\u2581inherit": 22492, "\u2581gal": 7514, "\u202d": 31130, "\u2581That": 1725, "\u2581banking": 22265, "addr": 3645, "\u2581uma": 5912, "\u822a": 30795, "\u2581Hern": 28521, "\u2581rum": 10203, "Align": 18821, "\u2581MO": 9875, "\u2581isol": 9777, "\u2581forg": 12706, "Channel": 7766, "################": 6668, "Pyx": 20585, "\u6c42": 29243, "\u865a": 31415, "\u2581mysterious": 21296, "\u2581Ord": 22404, "<0xF7>": 250, "handler": 8762, "\u2581sit": 1943, "\u2581Mas": 9183, "\u2581Writer": 28167, "\u2581approx": 22110, "Anchor": 21792, "\u2581pixel": 18012, "hythm": 16321, "\u2581anniversary": 21101, "width": 2617, "\u2581\u043f\u0440\u043e\u0446\u0435": 23146, "\u2581est": 934, "activate": 21452, "\u0442\u0440\u043e": 14162, "})$": 9340, "air": 992, "appings": 21044, "\u2581sway": 26249, "\u2581worm": 25736, "ISTER": 22633, "\uc694": 29517, "\u0441\u0441\u0430": 19750, "\u2581Che": 4537, "\u2581started": 2774, "\u2581kitchen": 6132, "\u2581cameras": 18713, "\u2581chosen": 8729, "\u6bcf": 29513, "\u2581defining": 22629, "\":\"": 10549, "\u7ba1": 29497, "CAP": 13706, "\u2581Sounds": 27067, "\u2581alias": 18960, "ellschaft": 20250, ")}(": 20089, "\u2581surprised": 8557, "\u2581Mey": 22586, "bb": 1754, "<0x89>": 140, "\u2581Attendance": 17741, ")\\\\": 23527, "PB": 27982, "working": 20867, "\u2581Sau": 23707, "\u2581alongside": 13291, "\u2581tokens": 16246, "\u2581Tra": 8534, "\u2609": 31670, "\u2581provisions": 22321, "\u2581distribution": 6023, "\u2581retail": 11603, "\u03ac": 29201, "\u2581environ": 14453, "oubt": 22531, "olly": 11394, "ysz": 27713, "\u2581som": 1113, "\u2581t\u00e9l\u00e9": 27961, "\u2581Gard": 15070, "\u2581giorn": 16251, "<0xDD>": 224, "\u2581finally": 4251, "emi": 17957, "\u0441\u044f": 1931, "\u2581Initialized": 25728, "\u2581bonds": 22541, "icating": 27623, "\u2581Run": 6320, "anches": 12655, "amazonaws": 26919, "rying": 5125, "\u2581inhab": 15734, "\u2581ett": 9947, "\u79d1": 30226, "ow": 336, "\u2581Clearly": 25421, "\u2581building": 3667, "\u2581Henri": 20374, "\u2581relay": 24517, "\u2581Ve": 13343, "\u2581obvious": 5444, "quis": 11225, "[];": 20895, "tons": 8901, "CONF": 25629, "\u2581ny": 13576, "\u2581[": 733, "\u2581notably": 27886, "\u5165": 29048, "assertEqual": 11073, "ZZ": 26212, "\u6295": 30189, "\u2581Eddie": 19768, "ialized": 7271, "sole": 3971, "\u2581revol": 14251, "\u2581query": 5709, "\u2581Package": 25949, "reflect": 24904, "xd": 10044, "ERCHANTABILITY": 13078, "\u2581!(": 23059, ">\".": 19593, "rent": 1114, "\u2581J": 475, "\u2581#####": 5609, "Ab": 6570, "\u043d\u0430": 612, "ately": 1999, "\u2581Mountains": 26425, "ixed": 3162, "wer": 4197, "\u2581android": 5791, "-,": 24244, "\u2581SF": 21890, "\u2581finds": 12397, "\u2581modules": 15901, "\u756a": 30815, "UPDATE": 18769, "\u2581Arc": 19733, "\u2581);": 1936, "asion": 5797, "ugs": 19882, "<0x49>": 76, "\u043b\u044c\u043a\u043e": 14451, "\u0626": 29690, "\u2581ad": 616, "reload": 26606, "attr": 3457, "\u2581released": 5242, "\u043d\u0438\u043a\u043e\u0432": 18154, "eln": 12228, "\u2581posterior": 20862, "\u2581testimony": 23648, "\u2581hyd": 24483, "\u2581ta": 14223, "\u00fchr": 7736, "\u0441\u0442\u0435": 6825, "\u2581screening": 23191, "\u2581information": 1871, "zs": 27896, "anners": 24681, "H": 28769, "\u2581Pub": 8742, "DU": 11788, "\u2581res": 605, "\ud2b8": 29404, "SETTING": 19629, "\u2581Jet": 28252, "\u0219ti": 25252, "Pre": 4277, "\u2581verk": 21164, "\u2581alone": 4411, "\u2581hub": 14546, "led": 1006, "play": 1674, "\u2581cul": 13463, "\u2581scent": 21535, "\u2581au": 2505, "olutions": 5533, "\u2581golf": 15485, "\u529f": 29206, "apture": 13568, "\ub839": 31514, "pn": 13777, "separ": 17519, "Acc": 5604, "\u2581lang": 9848, "\u2581descend": 19144, "\u2581complic": 9768, "amil": 8551, "anne": 13002, "\u5d0e": 31686, "\u2581anti": 6891, "\u5403": 31182, "\u2581tract": 25180, "\u2581Public": 4271, "Aud": 24761, "\u2581varieties": 27610, "\u2581community": 3618, "pc": 3280, "\u7372": 31805, "\u2581waste": 9396, "\u2581\u0447\u0430\u0441\u0442\u0438": 14881, "mann": 6482, "MD": 4915, "\u2581\u00e9s": 4275, "ody": 1174, "LEVEL": 18224, "\u8ba9": 30447, "DAP": 25857, "\u2581financing": 27438, "\u2581hotel": 7689, "Display": 7524, "\u4f24": 31546, "\u2581cousin": 17022, "\u2581Coll": 9215, "\u2581oblig": 9483, "\u2581Walter": 13517, "\u2581Drug": 27827, "writ": 10253, "ulsion": 24032, "\u2581buddy": 26123, "\u2581ISBN": 9337, "[\"": 2221, "\u2581schol": 17733, "uild": 1678, "\u2581poss": 1672, "\u2581AR": 6108, "\u2581logger": 11813, "ruit": 6424, "\u2581\u00e5": 12474, "\ub8cc": 30221, "Capacity": 28004, "\u2581Perhaps": 9447, "\u2581carrying": 10839, "\u2581Aff": 9691, "\"`": 8312, "desc": 5916, "ibli": 10798, "\u2581longest": 23397, "\u2581smell": 11016, "oration": 9990, "CONNECT": 27482, "\u2581Olymp": 8562, "\u7e3d": 31936, "neut": 23806, "Appe": 16929, "\u2581Krieg": 19020, "\u2581describe": 6685, "\u2581hel": 1172, "\u2581counting": 20014, "\u1e24": 30231, "ULE": 7857, "\u2581photography": 19824, "values": 5667, "\u2581\u0446\u0435\u043d\u0442": 12968, "\u2581Entre": 19361, "istan": 7694, "author": 6239, "\u2581proposed": 8278, "Driver": 14582, "\u2581Fitz": 21107, "\u2581record": 2395, "\u4eab": 30461, "\u2581assembled": 26309, "\u00b2.": 20110, "\u2581Ed": 2690, "\u7b56": 30777, "\u2581fol": 5074, "oka": 18377, "be": 1105, "itution": 6529, "\u2581transmission": 16209, "egr": 15553, "ORD": 6276, "plicity": 18494, "\u2581steht": 26441, "ROP": 24026, "\u2581defined": 4057, "ifer": 7627, "\u2581pills": 19436, "\u2581CH": 6523, "\u2581sites": 7363, "\u043b\u044f": 1941, "\u2581Supreme": 14887, "ville": 5485, "um": 383, "achelor": 18753, "\u62db": 31654, "\u2581sou": 5271, "sterdam": 18928, "vendor": 17635, "\u2581categ": 8510, "iesa": 22133, "drive": 26725, "\u2581Want": 19218, "\u2581resid": 12899, "\u2581Kon": 8294, "pipe": 12911, "site": 10041, "WH": 20536, "\u2581provoc": 27249, "\u2581anth": 20019, "\u2581Technical": 25930, "\u2581wondered": 10662, "\u2581stretched": 18398, "\u51fb": 29698, "\u2581comed": 26677, "\u2581nep": 22798, "\uc6d4": 30839, "\u2581leaving": 6285, "amarin": 25174, "theta": 4280, "tered": 8308, "\u00c4": 28999, "\u2581po": 1627, "Algorithm": 25302, "ouse": 1284, "\u2581beard": 25293, "\u2581(\u201c": 27156, "etz": 13659, "asury": 26440, "HEADER": 23685, "nc": 14770, "\u2581precisely": 14246, "\u2581hab\u00eda": 11044, "\u2581defeated": 16231, "\u8a8d": 30697, "ruppe": 17719, "SD": 5309, "errno": 17818, "\u2581\u041b\u0435": 12572, "ument": 1320, "\u2581Scott": 7636, "crim": 25489, "\u2581rot": 6580, "\u2581Bened": 23391, "\u2581Mut": 16969, "\u2581nos": 10404, "selection": 15856, "\u2581wrote": 4677, "ictions": 19351, "\u2581line": 1407, "\u2581unh": 20581, "\u2581Rot": 13430, "\u2581list": 1274, "\u2581RF": 27063, "Very": 26119, "tasks": 21128, "w": 28727, "\u0440\u0438\u0442\u043e": 13545, "\u2581Reading": 19118, "\u2581another": 1698, "\u2581Musik": 20348, "\u0454\u0442\u044c\u0441\u044f": 13137, "bag": 19001, "\u2581rested": 26916, "\u2581assignment": 15657, "\u8baf": 31316, "Pipeline": 20190, "\u2581Delta": 25220, "zed": 12616, "enue": 24529, "\u7259": 31300, "\u2581puzz": 15386, "\u2581anxious": 19695, "\u2581heated": 26853, "abad": 20882, "getCurrent": 28040, "Tools": 22423, "uld": 24782, "\u2581Stack": 25319, "\u2581new": 633, "\u03b7": 29049, "\u8acb": 30539, "rib": 758, "\u2581All": 1682, "\u2581claims": 9278, "\u0dd2": 31355, "ank": 978, "\u2581transm": 27179, "();\r": 4420, "acci": 28127, "\u2581continually": 27388, "mediate": 12597, "\u2581return": 604, "\u2581\u0432\u0440\u0435\u043c\u0435": 25396, "\u0432\u0438\u0437\u0438": 20943, "\u2581\u0441\u043e\u0441\u0442\u0430\u0432": 12281, "\u660c": 31265, "\u2581partly": 19208, "\u2581ensemble": 22936, "\u043b\u0435\u043a\u0442": 18981, "\u2581ages": 14506, "\u2581willing": 7813, "\u2581watch": 3054, "\u2581Moses": 26625, "Tasks": 15839, "\u2581encode": 20887, "webpack": 9091, "\u2581increment": 19632, "},\r": 17695, "\u570b": 30499, "Agent": 14829, "neath": 20316, "\u2581\u0441\u0442\u0440\u0430": 13488, "odigd": 15630, "aste": 4635, "\u2581besch": 15049, "FR": 9790, "Thank": 15896, "\u2581affiliate": 24933, "Compat": 7789, "\u2581issued": 11793, "pgfset": 19107, "\u2581Dy": 25685, "\u2581concerned": 9059, "\u2581": 28705, "Mult": 7180, "\u2581plane": 8573, "\u2581riding": 14557, "\u2581C": 334, "\u2581designers": 24518, "\u7cfb": 29401, "\u5df1": 29957, "anguage": 2797, "\u2581weak": 6334, "}\\,\\": 26758, "vere": 10888, "preview": 21900, "amm": 6461, "\u2581Matthew": 15305, "Router": 16907, "\u2581Meter": 26673, "\u2581Dire": 19370, "\u2581Belg": 12172, "\u2581turno": 27200, "\u2581tongue": 13821, "\u2581Steph": 27316, "\u043d\u0430\u0447\u0430": 27690, "\u0e49": 29318, "attrs": 15215, "\u2581feels": 8315, "\u2581Stad": 4988, "Family": 17170, "\u2581statue": 22594, "\u2581sow": 28689, "\u2581\u0412\u0435\u0440": 20908, "\u2581hear": 3934, "\u2581ib": 12964, "\u2581unusual": 14614, "tta": 19016, "\u2581\u0441\u0432\u044f": 15520, "Measure": 25241, "\u2581eliminate": 20545, "\u2581manage": 8594, "\u2581Buffer": 21495, "\u2581according": 4771, "\u2581advances": 27505, "Health": 18470, "\u2581DS": 25840, "\u2510": 31175, "Oper": 3935, "head": 1811, "\uc608": 30542, "\u2581\u0433\u043e\u0434\u0438": 8481, "\u2581minutes": 3486, "\u2581Ident": 15220, "pletion": 14621, "\u2581healthcare": 15240, "uce": 12783, "\u2581Na": 7084, "dot": 7623, "\u8bb2": 31952, "\u0308": 30814, "\u30aa": 29866, "\u2581stri": 4216, "\u2581reputation": 12947, "\u2581weights": 17628, "ajor": 2577, "Do": 4957, "\ud2f0": 31409, "irm": 2780, "\u2581slip": 13070, "\u2581Common": 10757, "\u2581interests": 10299, "FIN": 23178, "\u2581Jac": 7129, "\u0569": 31502, "\u2581Gy": 18075, "\u2581\u00c9tats": 17902, "Left": 7549, "agen": 5786, "omon": 20785, "\u2581Nederland": 20347, "\u2581drops": 17472, "minecraft": 22875, "/#": 27581, "oming": 17846, "WT": 25971, "\u2581Colombia": 23938, "\u2581Isaac": 25548, "\u2581features": 4190, "\u2581==>": 27752, "Padding": 18273, "\u2581\u00bb,": 13231, "\u2581caused": 7334, "\u2581stress": 6727, "()).": 9079, "\u2581despite": 7577, "\u2581mock": 8975, "\u2581Denmark": 26486, "uel": 3009, "\u093c": 31609, "Join": 14136, "\u2581meter": 14386, "reb": 15518, "\u2581Haz": 23990, "\u2581fon": 15775, "\u0441\u0442\u0456": 8709, "orio": 26794, "\u2581screen": 4921, "\u2581r\u00e9alis": 21090, "Series": 20736, "Quant": 19701, "\u06c1": 30235, "\u2581verified": 25301, "\u0259": 29108, "ASH": 12322, "sect": 8261, "\u2581Transport": 15096, "eenth": 23124, "\u2581views": 8044, "\u2581sh": 480, "\u2581passion": 8773, "\u2581SPE": 16758, "\uff08": 29186, "\u2581Interest": 20059, ">(": 3323, "[]{": 20992, "\u2581large": 2475, "\u2581tra": 5455, "\u2581Merc": 27934, "\u2581*": 398, "\u2581Now": 2961, "ral": 1650, "\u2581Rat": 20876, "\u7fa4": 30204, "\u2581PROVIDED": 27104, "\u2581scen": 6460, "\u2581click": 6046, "\u2581segundo": 22667, "vol": 3871, "\ubb34": 30449, "sty": 22958, "catalog": 24945, "\u00fdm": 15690, "car": 6602, "\u2581Bis": 23764, "poque": 25576, "\u2581SU": 13319, "\u2581knowing": 8215, "Support": 9452, "\u2581Cont": 2999, "\u2581spreading": 22244, "\u2581warranty": 12864, "\u987a": 30626, "\u2581Sir": 8351, "\u2581okay": 8810, "\u2581fruits": 21566, "\u2581\u2581\u2581\u2581": 260, "\u2581Spirit": 13516, "lij": 13236, "#{": 16775, "\u2581Week": 10433, "}\")": 24984, "\u2581Wikipedia": 21740, "\u901a": 29217, "\u2581younger": 9729, "aping": 13887, "ulated": 6432, "\u2581stem": 17854, "\u2581wat": 4940, "Format": 5056, "TAG": 12137, "\u7ee7": 30471, "express": 24738, "\u2581today": 3154, "stv\u00ed": 24574, "\u2581Switch": 20666, "\u266d": 30420, "\u2581\u0418\u0437": 17838, "redirect": 19123, "Timeout": 8936, "\u2581erst": 15825, "\u2581Runtime": 14046, "MM": 4962, "\u00eatre": 8437, "eros": 10667, "\u2581\u043c\u0456": 7864, "\u0268": 30200, "\u2581dish": 14523, "\u2581alarm": 14405, "ilen": 27748, "\u4ec0": 30289, "\u2581scoring": 20310, "\u2581PE": 21025, "\u2581Senator": 22927, "ischen": 3096, "\u2581campaigns": 19886, "\u2581\u0412\u0456": 23870, "pow": 15625, "ock": 629, "\u2581Lincoln": 14279, "John": 14964, "JO": 24714, "\u72ec": 30843, "\u2581dtype": 17882, "\u30e2": 30177, "\u0430\u043b\u044c": 8067, "\u2581Info": 19790, "\u2581theft": 27119, "Assembly": 25617, "\u2581Cy": 12080, "\u2581interpret": 7190, "\u2581concluded": 16489, "\u2581\u0420\u043e": 5850, "\u2581vul": 10320, "defer": 17112, "\u2581bog": 24838, "\u2581extraord": 14577, "\u2581transaction": 8966, "\u2581believes": 15302, "\u7968": 30559, "\u2581rendered": 21795, "parameters": 11438, "\u1ee3": 29908, "\u0159i": 28180, "\u2581uncertainty": 18110, "{-": 9817, "\u2581reality": 6940, "\u2581flies": 28030, "tim": 7452, "\u2581word": 1707, "oll": 793, "\u2581pose": 15596, "\u2581GC": 22278, "removed": 28292, "\u2581guilty": 14227, "<0x77>": 122, "\u2581caracter": 23574, "\u2581Hof": 24557, "uid": 4161, "\u2581boats": 19706, "\u2581alla": 6625, "\u2581dot": 12253, "\u2581storage": 7073, "\u2581squad": 10310, "VAR": 13408, "\u2581m\u00e5": 25113, "Sets": 25144, "\u2581Kir": 8806, "\u2581Ira": 11721, "\u4e86": 29105, "Paul": 22241, "\u0432\u0438\u0447\u0430": 26785, "ailable": 2226, "man": 1294, "\u2581urban": 12270, "\u2581competitors": 24619, "setAttribute": 20675, "\u2581preparing": 16486, "\u2581Ils": 25311, "\u2581conserv": 6961, "\u2581\u041f\u0435\u0440": 14353, "\u2581Jamie": 19017, "\u2581contrad": 15235, "\u2581Dist": 12443, "\u2581washing": 20391, "\u2581Nature": 19013, "web": 4311, "aises": 25515, ")&": 22743, "\u2581catching": 23729, "\u2581Ontario": 18572, "\u2581Byte": 20376, "\u2581hecho": 27722, "\u2581dici": 23241, "\u2581eng": 2536, "\u2581importante": 19538, "P": 28753, "\u0002": 30551, "INTE": 28421, "\u2581BAS": 11502, "\u00bf": 28970, "\u2581haz": 17617, "\u2581VER": 27511, "agi": 22657, "\u2581uz": 26040, "poon": 20670, "\u2581culture": 5679, "\u2581Cambridge": 14751, "\u2581Active": 15838, "\u0bc7": 31641, "Face": 19064, "|---": 24823, "\u2581retire": 26033, "\u2581Indones": 16653, "zer": 3506, "\u2581preferred": 11719, "\u2581millions": 11076, "aggi": 24069, "aining": 1781, "\u2581However": 2993, "\u2581otro": 22441, "\u00edan": 9927, "\u2581stare": 19696, "\u2581Pract": 15961, "iop": 19072, "Large": 27408, "\u2581epis": 6030, "\u2581Hawai": 18839, "ania": 4877, "fac": 20107, "\u2581overall": 7544, "\u2581\u043f\u043b\u043e": 17223, "\u2581son": 1966, "\u2581fabric": 10455, "\u2581lady": 10271, "\u2581devil": 23153, "\u2581chunk": 11077, "\u2581margin": 9829, "\u2581vibr": 13546, "beit": 10943, "\u8d23": 31377, "ieren": 11958, "arta": 18311, "\u5178": 30465, "\u042c": 30683, "\u2581independently": 22973, "hour": 13785, "\u614b": 31094, "\u2581documented": 26624, "\",": 548, "Sheet": 19565, "\u2581Travel": 17823, "\u2581breeze": 24284, "\u2581prison": 6587, "\u2581display": 4249, "\u2581Wahl": 26421, "\u2581Ent": 6662, "\u2581disp": 15285, "clos": 10413, "ograf\u00eda": 18687, "Operator": 13583, "\u2581realise": 27457, "\u043f\u0435\u0440\u0430": 11687, "unregister": 28535, "apa": 10405, "\u2581horm": 19115, "Mad": 22762, "ders": 10802, "\u2581\u0440\u043e\u0434\u0438": 23212, "\u2581Situ": 28119, "Queue": 9583, "mero": 18056, "\u2581ID": 4519, "Bar": 5293, "\u2581todo": 12585, "EO": 7438, "\u2581container": 7640, "ction": 445, "CU": 24164, "ley": 2047, "\u2581Arabia": 27264, "\u2581aur": 23902, "plic": 1256, "\u2581Multi": 18317, "\u2581Mean": 11736, "\u2581agency": 11344, "nm": 14946, "springframework": 9484, "\u2581Focus": 24408, "\u2581Why": 4315, "\u2581comun": 18166, "ocz": 27282, "varepsilon": 6490, "\u2581AA": 24724, "]\",": 23772, "\u2581sulla": 20987, "\u2581cuatro": 27429, "ools": 20498, "\u80dc": 31830, "\u0e42": 29368, "\u2581consciousness": 16508, "\u2581necessarily": 11867, "\u2581reduced": 9397, "\u80e1": 31669, "\u2581pian": 21624, "\uc5ec": 29827, "css": 5753, "\u2581instructions": 11382, "\u0432\u0430": 870, "\u2581LO": 6807, "\ub144": 31479, "cher": 6113, "\u2581bro": 1865, "\uc628": 31386, "\u2581possible": 2572, "\u2581reminds": 25639, "malloc": 24320, "strcmp": 17789, "\u2581prey": 27911, "\u2581Authority": 20653, "\u2581refres": 24343, "\u0440\u043e\u043c\u0430": 25867, "\u2581didn": 1539, "jor": 9577, "\u2581discover": 5191, "oo": 3464, "PROC": 15812, "\u586b": 29875, "\u2581founding": 24750, "JECT": 11546, "\u2581\u0435": 2385, "\u2581solved": 21994, "\u00fch": 11472, "omi": 16344, "\u2581Kar": 7775, "typ": 23306, "\u65e7": 31336, "\u2581enhancement": 27764, "/$": 23530, "enties": 11586, "\u2581)": 1143, "\u2581Pick": 17662, "\u2581STR": 17235, "unter": 16442, "\u2581toward": 4112, "\u2581sc": 752, "iego": 8956, "count": 2114, "Lif": 28461, "\u2581regardless": 12907, "\u2581confer": 26992, "eman": 11513, "\u2581Hav": 23780, "\u2581improving": 16752, "angle": 2988, "\u2581Role": 21596, "\u021b\u0103": 25055, "/.": 15704, "incipal": 15934, "\u2581daughters": 19244, "\u2581few": 1664, "builder": 10151, "ONG": 10962, "ups": 9023, "recht": 26429, "\u2581fixture": 20284, "metrics": 20901, "\u2581insist": 26648, "nte": 15111, "anon": 20931, "\u2581iv": 19900, "\u043a\u043e\u0432": 5669, "\u2581checking": 12779, "\u2581functionality": 20289, "\u2581Had": 11238, "\u2581plastic": 10409, "\u2581Howard": 14907, "torch": 22850, "\u2581Russell": 17300, "\u2581narr": 9819, "\u2581crusher": 14747, "tring": 850, "\u0442\u043e\u0440": 6826, "cover": 3649, "sam": 15084, "<0xD8>": 219, "reme": 6730, "wo": 809, "\u2581Activ": 18359, "That": 3840, "\u2581perpet": 18313, "\u79cb": 31467, "\u2581throughout": 5473, "\u042e": 28950, "lit": 18600, "\u2581law": 2309, "\u2581Mittel": 27026, ".)": 2974, "Tick": 22812, "cular": 12723, "parent": 3682, "\u5dde": 29719, "\u2581walls": 8133, "sters": 12242, "\u2581Coun": 4830, "draft": 27490, "\u2581for": 354, "\u2581physician": 21765, "\u26a1": 31420, "\u2581Buch": 17680, "constraint": 27122, "\u2581Maybe": 5833, "\u200d": 29274, "\u2581Annual": 23647, "\u2581november": 24107, "Reader": 8056, "avirus": 22397, "\u672a": 29509, "iri": 16105, "\u2581Relig": 18877, "\u0441\u0442\u0438": 2266, "\u30f4": 31428, "\u2581Fair": 11587, "akes": 1593, "\u2581parks": 24682, "\u2581hom": 3153, "\u0437\u044b": 7763, "\u2581ver": 1429, "mathop": 27188, "\ud0c0": 30304, "mode": 4046, "mail": 6645, "\u2581\u0421\u0430\u043d": 18475, "\u2581Select": 13341, "iro": 4812, "ender": 2341, "\u7121": 30113, "\u2581License": 2319, "\u00e1ny": 11596, "egu": 20771, "\u5c07": 30858, "\u2581Creative": 23626, "\u179f": 30326, "\u2581Look": 6412, "\u2581ot": 6957, "\u2581m\u00eame": 10274, "\u2581entirely": 8134, "rom": 436, "\u2581_": 583, "ject": 664, "\u0148": 29026, "\ub3c5": 31930, "\u4e25": 31871, "\u2581e": 317, "\u2581Fur": 8179, "userId": 23490, "\u2581fire": 3339, "ibt": 15046, "\u2581preferences": 22731, "\u2581nice": 5171, "\u2581sprint": 15409, "Score": 18120, "\u2581stops": 15892, "\u2581brow": 17867, "isi\u00f3n": 13386, "\u4fdd": 29321, "\u2581dis": 704, "\u2581Belgium": 25129, "\u2606": 29839, "nullable": 21777, "]),": 11501, "\u2581At": 1794, "start": 2521, "\u2581cotton": 18633, "la": 2220, "\u2581holiday": 12010, "\u2581Temp": 27279, "rypto": 10690, "\u2581turb": 18549, "DEVICE": 12321, "rupt": 4272, "\u30af": 29221, "\uff0d": 31140, "\u2581accord": 13246, "\u2581after": 1024, "utz": 13533, "\u2581usual": 8434, "\u2581Kas": 22965, "\u0433\u0435\u043d": 18814, "\u2581belie": 1989, "\u2581fusion": 22104, "\u2581quar": 21403, "\u2581Kr": 7787, "\u7edf": 29531, "\u0005": 30550, "\u2581Env": 12590, "\u2581Hein": 19162, "\u2581mat": 1610, "\u306f": 29277, "\u2581toute": 22611, "Criteria": 20719, "asant": 10482, "\u2581Tyler": 23307, "bet": 10200, "\u2581Das": 7029, "\u2581consistent": 10652, "segment": 19447, "bast": 15174, "iman": 27153, "\u2581sensors": 27810, "amente": 3958, "\u1ed5": 30686, "\u2581agrees": 28175, "\uc88b": 31807, "\u2581\u0442\u0435\u043b\u0435": 21094, "ierra": 14645, "paren": 18544, "\u982d": 31041, "\u2581Mono": 27464, "\u2581fool": 10776, "\u91cd": 29249, "uler": 19640, "hh": 12653, "\u2581kids": 4551, "pu": 2498, "\u043b\u0435\u043d": 3997, "where": 2956, "\u2581regarded": 15390, "\u2581sales": 6292, "<0xAA>": 173, "\u2581himself": 2722, "idal": 17594, "\u2581Num": 15755, "How": 5660, "iami": 14581, "\u2581screaming": 19455, "\u2581budget": 8326, "\u96c6": 29451, "\u2581stating": 23630, "arettes": 27015, "\u2581_.": 17309, "Loading": 16031, "\u2581individuals": 6992, "\u2581Hob": 23482, "\u2581encoding": 16087, "]:": 9582, "\u2581render": 7188, "\u043a\u0442\u0443": 19456, "\u2581Annie": 21780, "\u62d2": 31792, "DOM": 15421, "\u2581trim": 13893, "Feature": 11636, "\u2581je": 2218, "\u2581compete": 18575, "\u2581feed": 5575, "\u2581ehemal": 24156, "\u2581\u043f\u0440\u043e\u0435": 23249, "\u2581trust": 4893, "\u2581changes": 4435, "\u2581\u0413": 2592, "\u2581Later": 11680, "\u22c6": 31288, "ountry": 12612, "\u2581import": 726, "\u2581Theatre": 15209, "\u2581tropical": 21257, "\u2581showed": 6642, "\u2581mistakes": 17179, "ni": 3023, "SUB": 16541, "\u2581pent": 15094, "\u2581sens": 3564, "ict": 848, "\u8db3": 30303, "cursor": 12601, "\u2581planets": 28312, "etection": 22820, "\u2581Future": 18242, "\u2581Au": 9779, "\u2581style": 3238, "\u2581compte": 24380, ");": 344, "calendar": 28258, "Toolbar": 24118, "\u50a8": 30180, "prof": 18212, "\u0459": 28918, "\u2581luxury": 17211, "\u2581answer": 4372, "\u2581telev": 6528, "\u2581Medicine": 18293, "<0x6E>": 113, "\u0441\u044c\u043a\u0430": 12533, "Autom": 23556, "ager": 1742, "\u2581highway": 20127, "\u2581ange": 19582, "\u2581principal": 7518, "PART": 28069, "related": 9646, "\u2581Someone": 16124, "\u2581shares": 13308, "\u5bcc": 31017, "iero": 23419, "Art": 10363, "\u2581dri": 2768, "\u2581spokes": 23287, "\u2581contribut": 4913, "isce": 26322, "\u2581Without": 11528, "\u2581\u0432\u044a": 17051, "\u0442\u0435\u0440": 8900, "Date": 3465, "\u2581Lily": 25492, "\u2581EXPORT": 20713, "LowerCase": 19855, "\u2581San": 3652, "Fire": 16793, "\u2581Trace": 28626, "\u6c99": 30960, "\u2581guest": 11683, "elm": 22329, "\u2581trab": 11968, "\u826f": 30868, "<0x6D>": 112, "\u2581\u0434\u0435\u044f": 20720, "\u2581tecn": 24850, "RESET": 22867, "\u2581Questions": 24953, "\u2581slice": 16163, "ategor": 21800, "\u2581styled": 23138, ".\u2019": 18526, "\u2581valid": 3716, "\u2581radical": 14358, "\u2581vacation": 16829, "lio": 11126, "\uc5f0": 30107, "\u2581Cameron": 23028, "\u2581Stock": 11548, "\u2581closure": 22746, "\u2581paragraph": 18438, "ulse": 17494, "\u2581quando": 15440, "CASE": 24152, "\u78c1": 31834, "\u0432\u0430\u0432": 14215, "\u2581software": 3930, "Str": 3490, "\u2581traff": 7676, "\u2581Ryan": 13194, "\u0432\u043e\u0433\u043e": 11877, "VT": 10098, "\u2581Jim": 6715, "build": 4671, "disabled": 13375, "\u4eac": 29936, "\u2581natural": 4229, "TIME": 8197, "\u2581crucial": 13040, "\u2581grow": 2333, "throws": 10081, "\u044c\u044e": 16283, "\ube14": 30502, "\u2581forma": 10997, "\u2581DATA": 21578, "ifiable": 21386, "\u2581Charlotte": 16461, "\u2581\u200b": 15758, "Factor": 20169, "\u00f5": 28925, "\u7532": 31272, "yy": 8772, "\u2581midnight": 22494, "\u2581while": 1312, "eng": 980, "Virtual": 14884, "xl": 22406, "zip": 13249, "Inf": 20417, "REL": 27089, "hui": 24281, "\u2581baby": 5982, "handle": 5123, "\u2581tall": 9369, "Drag": 18383, "\u0448\u043b\u0430": 28095, "\u0440\u043e\u0432": 5658, "\u2581Career": 18050, "group": 3063, "\u2581proposal": 15297, "\u2581dealt": 21759, "fried": 25670, "\u2581Moreover": 11302, "\u2581harmon": 26739, "\u2581prevented": 26492, "\u2581tou": 7400, "Events": 11208, "\u2581privilege": 23037, "\u00eas": 17194, "\u043f\u0440\u043e": 8378, "\u2581artificial": 18278, "\u2581were": 654, "Name": 952, "\u2581Welt": 13543, "\u2581sequence": 7768, "public": 2001, "\u2581Upper": 25407, "\u2581hors": 10691, "\u2581Glen": 17529, "\u2581chang": 2265, "xt": 510, "selector": 15438, "Valid": 4794, "poser": 25155, "rost": 27848, "\u2581Silva": 28655, "erei": 26158, "Tri": 18332, "\u8986": 31079, "Diff": 18331, "zt": 3903, "\u2581Brend": 26888, "\u2581Anders": 24930, "nar": 24837, "\u2581none": 6547, "Iterator": 12057, "attributes": 11855, "ola": 4362, "\u2581roughly": 15756, "\u2581Document": 14873, "won": 17959, "\u2581bars": 13529, "\u2581thought": 1654, "\u2581daily": 6790, "\u2581spe": 1886, "\u2581alloc": 7053, "CK": 2889, "\u2581CP": 16571, "riculum": 21582, "\u2581Group": 5926, "\u043f\u0440\u0435": 8971, "\u2581lost": 3654, "\u0443": 28805, "bez": 21610, "\u00e2": 28891, "\u2581breathing": 14232, "inking": 10593, "\u2581Certain": 20828, "outh": 1881, "\u2581naar": 12547, "\u2581Wrest": 28444, "\u2581WITH": 17974, "and": 391, "ijo": 21409, "\u2581diagnosed": 26629, "\u5f88": 30111, "uate": 11931, "ses": 6065, "\u0649": 29591, "ahoo": 27568, "\u2581depart": 5280, "Threading": 24631, "Component": 3621, "\u2581loads": 22560, "\u2581keyword": 23247, "ows": 3611, "\u2581{})": 25226, "rage": 18955, "defaults": 22086, "\u2581tilt": 24758, "util": 1858, "\u2581Watson": 22603, "ungs": 6571, "\u2581fue": 5631, "\u2581Angeles": 9479, "\u2581cause": 4244, "\u2581guarante": 7953, "\u09cd": 29686, "ee": 2443, "pf": 10018, "\u2581antes": 17567, "\u0f66": 30996, "\u5b58": 29079, "\ud83d\ude05": 30379, "\uc9c0": 29161, "ll": 584, "\u2581Mond": 7672, "\u041d\u0430": 24192, "\u2581doors": 9289, "\u2581purchased": 13471, "lower": 13441, "\u2581interior": 11154, "handed": 27008, "\u2581Seattle": 18083, "\u2581\u043a\u043e\u043d": 6361, "\u0142a": 6905, "Groups": 14958, "DESCRIP": 25205, "../": 1979, "\u2581num": 2075, "\u2581proven": 12598, "\u0e33": 30032, "\u2581opts": 13069, "\u2581satellite": 22046, "\u2581vehicles": 11999, "\u2581Chen": 17038, "memset": 21253, "Uri": 13530, "\ub2ec": 31082, "\u2581BO": 12070, "cg": 17831, "Con": 856, "\u2581Wu": 28660, "\u00eet": 21155, "\u2581ne": 435, "\u2581Kay": 17399, "\u2581Follow": 9822, "\u2581violence": 9165, "\u2581\u0423": 3375, "igate": 11590, "\u2581Back": 6795, "\u0c02": 31548, "\u2581deutscher": 16765, "\u2581Egyptian": 23900, "\u2581sliding": 25152, "\u95ed": 29890, "oday": 19761, "\u2581encuent": 16611, "acre": 20383, "\u2581playing": 4543, "\u2581upper": 7280, "Sun": 28524, "equals": 7013, "\u2581o": 289, "\u2581Urs": 28305, "\u2581els": 7698, "routes": 26016, "\u2581angel": 23190, "\u2581tattoo": 28105, "ARK": 17155, "\u2581Era": 23901, "\u6c47": 31768, "\u2581collective": 17236, "\u043d\u0435\u043d": 13226, "hall": 26912, "\u2581seiz": 25368, "rency": 7492, "\u2581shaking": 17030, "icles": 4992, "\u2581drunk": 12731, "\u2581Pet": 6728, "\u2581achieving": 25122, "\u2581cf": 24211, "orious": 16464, "tes": 2097, "\u2581verd": 18070, "\u2581sex": 3142, "union": 14324, "SYSTEM": 27842, "\u2581HP": 22379, "\u2581Bat": 13003, "\u043b\u0435\u043a": 22122, "\u2581tub": 11988, "elo": 11979, "\u2581find": 1300, "branch": 19175, "\uc5d4": 31821, "rank": 13626, "\u5be6": 31972, "\u00e9tico": 27771, "angers": 10568, "home": 9029, "\u0192": 30753, "igator": 17769, "\u2581sections": 12458, "\u2581Show": 8610, "\uc0c9": 30508, "\u2581astr": 15311, "\u2581diversity": 18644, "WAR": 9272, "agy": 11644, "\u6263": 31444, "por": 2006, "ernel": 6453, "CE": 2554, "\u2581Up": 4324, "\u2581durable": 26200, "sey": 7353, "\u044e\u0442": 7311, "ghai": 25801, "\u2581lifting": 22853, "Typed": 22646, "\u2581fit": 4646, "__": 860, "\u2581coefficient": 23982, "\u8f09": 31362, "\u2581needle": 25710, "ros": 2737, "\u2581Bible": 12717, "\u2581furn": 8556, "\u2581Monte": 14706, "Sep": 18079, "\u2581minim": 12233, "\u2581Enum": 26426, "\u2581bench": 11984, "\u7ed1": 30384, "\ub9cc": 29757, "CCESS": 9476, "oping": 22970, "\u012d": 31567, "rw": 19741, "\u2581Sandy": 27925, "ctrl": 8022, "\u2581Ev": 5740, "ousel": 25400, "PRO": 4202, "ingu": 7473, "source": 1394, "\ub974": 31091, "UNIT": 22587, "\u2581reass": 18126, "<0x73>": 118, "\u2581summit": 28304, "\u2581tube": 17735, "sha": 15564, "stable": 17588, "ression": 9202, "\u2581arms": 5574, "\u2581beim": 17454, "\u2581exit": 7790, "AM": 2854, "uest": 24437, "\u2581Four": 9611, "SAMP": 28610, "Details": 9515, "\u2581Gill": 24704, "Columns": 15468, "onte": 14266, "\u2581Big": 6375, "\u2581beta": 21559, "\u2581aria": 19787, "wand": 27358, "Light": 12524, "\u2581horizon": 18259, "\u2581pur": 3276, "\u2581method": 2038, "oned": 12880, "POSE": 12053, "\u2581theme": 7335, "remove": 4653, "\u2581overwhelming": 18894, "\u2581Wang": 23024, "ktur": 25947, "Start": 4130, "ipe": 3985, ".</": 4698, "\u2581b": 287, "\u2581Dezember": 19314, "\u00f6s": 12548, "\u2581organiz": 6443, "(((": 11133, "\u2581Brist": 27628, "\u2581Historic": 26851, "\u2581\u043d": 24595, "\u2581bureau": 20145, "\u2581alors": 13086, "\u2581sett": 4641, "\u2581Lucas": 19531, "unned": 25704, "models": 8676, "<0xF3>": 246, "\u00e9t\u00e9": 12329, "\u0c3f": 31227, "\u2581migration": 18579, "\u2581Vor": 11975, "elled": 6099, "\u2581Led": 28048, "GS": 17580, "osp": 3382, "\u4e24": 29745, "\u2581FIT": 12630, "\u2581descriptor": 17387, "\u914d": 29253, "\u2581IP": 7076, "\u0e1e": 29786, "LA": 8423, "\u2581Philippe": 26637, "\u904d": 30436, "Change": 5500, "\u00fdch": 8739, "\u2581below": 3624, "ucht": 19113, "\u01c0": 31870, "\u2581permission": 9599, "icated": 6899, "\u093f": 29554, "\u2581Finn": 19357, "\u2581pr": 724, "\u2581satisfaction": 16456, "\u2581Liber": 8592, "alf": 2121, "\u2581sufficient": 9406, "which": 6974, "\u2581Whatever": 16973, "\u2581commerce": 21806, "\u69d8": 31874, "\u2581Also": 4840, "\u2581million": 3841, "\u2581People": 5619, "\u2581foot": 3331, "ebug": 5986, "(){": 8881, "rud": 16950, "WP": 23937, "\u2581PORT": 23974, "ARGET": 17985, "\u30d9": 30277, "aya": 9851, "\u2581through": 1059, "\u2581concent": 7249, "\u0435\u043d\u044c": 13597, "NEL": 19014, "\u2581Stanley": 19805, "\u2581wanted": 2613, "\u2581Joan": 20616, "\u2580": 30374, "iones": 4639, "\u2581strong": 2967, "\u2581Stars": 22444, "\u2581\u00f6": 6204, "\u2581Italia": 16995, "\u2581mask": 5934, "\u2581caus": 3599, ":%.*": 16772, "\u2581\u00c1": 10415, "\u5236": 29251, "\u2581checked": 9681, "hline": 9208, "live": 17064, "\u2581\u0432\u0440\u0435": 8614, "\u2581unhappy": 26658, "\u2581princess": 28313, "dst": 8529, "izon": 12764, "TEXT": 9219, "usalem": 17616, "\u2581illegal": 12701, "\u2581AUT": 18453, "ify": 1575, "Scal": 12350, "<0xB3>": 182, "\u2581leadership": 9802, "\u2581Mary": 5480, "\u2581Vision": 27663, "=\"../": 7704, "Unlock": 26175, "\u2581La": 1700, "\u2581uri": 22613, "\u2581Vir": 6595, "\u2581nur": 7475, "\u2581Deputy": 27694, "\u2581mush": 25064, "\u2581guid": 12412, "\u2581Diego": 15289, "DISABLE": 21927, "\u2581Columbia": 14402, "\u65e5": 29142, "\u2581shed": 19851, "hand": 2625, "\u2581comparing": 21400, "\u2581Bah": 20057, "venue": 8008, "\u2581recall": 8596, "\u0435\u043d": 939, "ori": 6519, "\u2581\u0441\u0432\u043e": 6278, ")+": 10528, "unc": 10474, "\u2581saying": 3677, "whe": 15831, "\u2581NOT": 5457, "\u2581mejor": 23209, "Default": 4158, "anz": 4879, "\u8fce": 31366, "\u2581double": 3579, "\u2581Constitution": 18620, "But": 2438, "iom": 19934, "\u2581supporting": 11787, "\u043d\u0435\u043d\u0438\u044f": 23993, "found": 9016, "\u2581einer": 5984, "_\\": 2801, "\u040f": 29473, "exports": 10126, "\u2581techniques": 9804, "\u2581zn": 13288, "backup": 27078, "\u2581cancel": 11351, "\u0440\u0435\u0434\u0438": 15748, "\u2581Ave": 27170, "render": 6577, "\u2581Democrat": 28540, "\u2581profitable": 27822, "\u58f0": 30271, "\u82f1": 30193, "\u0db1": 31487, "\u0446\u0438\u0430\u043b\u044c": 18878, "\u2581mostly": 7444, "lett": 15418, "\u2581Pennsylvania": 15472, "\u0440\u0438\u043e": 15604, "\u2581Father": 11432, "ference": 2103, "clusion": 16713, "evt": 20457, "heading": 26771, "\u2581prejud": 27425, "\u2581cruise": 26869, "\u2581Guy": 16520, "\u2581'%": 12540, "\u2581flowers": 11888, "\u2581Ivan": 18559, "seau": 24554, "\u2581Golf": 22932, "Adjust": 23442, "\u2581almost": 2779, "ites": 3387, "\u2581Gor": 23320, "\u2581Fre": 5694, "ultural": 12279, "\u2581announcement": 20990, "idden": 4131, "widehat": 11896, "\u2581Long": 6428, "\u2581Eric": 12867, "\u2581AND": 5771, "RST": 22551, "cart": 14040, "norm": 10767, "Before": 11273, "\u2581news": 4231, "REQUEST": 16396, "\u0110": 29260, "scriber": 22941, "ifier": 3591, "\u2581span": 12363, "WM": 19356, "iane": 18861, "\u2581bottles": 20353, "until": 27221, "\u0431\u043b\u0438": 8334, "\u66f8": 30481, "\u2581\u2581\u2581\u2581\u2581\u2581\u2581\u2581\u2581\u2581\u2581\u2581\u2581\u2581": 1417, "\u10d0": 29134, "\u2581novels": 20302, "storm": 22239, "\u90a3": 29793, "\u2581TEXT": 25775, "\u2581Molly": 28006, "\u2581Sciences": 19364, "\u68cb": 31735, "\u2581september": 25494, "ighed": 24776, "\u2581afternoon": 8635, "\u54ea": 30951, "\ucc3e": 31161, "\u2581uitgenodigd": 15649, "\u2581event": 1951, "\u2581Commonwealth": 26777, "\u00c3": 29364, "\u2581someone": 2493, "\u2581stood": 4857, "\u2581resign": 22883, "ww": 1566, "commun": 15976, "\u2581difer": 14986, "\u00b2": 28941, "\u5b78": 30923, "\u2581intellig": 7808, "overlay": 27163, "\u2581Domin": 14467, "\u2581Rating": 25181, "NON": 20232, "For": 2565, "\u2581Russ": 3770, "ellt": 17633, "\u2581metrics": 17001, "tid": 18294, "\u2581\u00dc": 13156, "autre": 25538, "oust": 18361, "\u2581Fue": 21407, "\u2014\u2014": 12789, "\u2581reign": 21539, "\u2581partition": 13916, "\u2581consumption": 16298, "\u4e01": 31577, "\u2581fins": 22339, "\u0d9a": 31910, "\u2581\u0441\u043e\u0441\u0442\u043e\u044f": 22202, "\u2581example": 2757, "\u2581genuine": 16968, "\u2581critics": 20557, "\u2581emerged": 16188, "uary": 4084, "\u043d\u044f": 1971, "\u59cb": 29197, "\u2581derivative": 25355, "\u2581escal": 19491, "bot": 10093, "WC": 23046, "\u2581club": 4489, "\u2581cement": 22701, "pton": 11648, "\u2581gig": 13790, "\u2581Cell": 20355, "operations": 25488, "\u2581luego": 26899, "Lat": 17119, "GER": 11832, "\u2581eer": 10034, "\u2581Usually": 23617, "\u2581He": 650, "ually": 1323, "\u041f\u043e": 19469, "exception": 7703, "Enabled": 7315, "erg": 8640, "*/\r": 9823, "\u2581medi": 17286, "Children": 13868, "\u2581bot": 12435, "fections": 23498, "\u2581dataset": 13466, "\u2581Dear": 22143, "\u0440\u043e\u0432\u0430\u043d": 21306, "\u2581Ay": 17161, "Sort": 13451, "\u2581sour": 18193, "Cart": 17057, "rial": 6144, "picker": 19794, "ocratic": 26184, "\u2581Writing": 19920, "\u4e1c": 29717, "\u2581intimid": 26157, "\u8c03": 29231, "\u2581absorb": 28311, "\uc558": 31877, "\u2581inev": 14694, "\u2581Austral": 4351, "\u2581jou": 13087, "amba": 26942, "unct": 18181, "moment": 26471, "\u2581stagione": 24248, "\u0448\u043b\u0438": 28480, "Patch": 24936, "acer": 9172, "\u2581representation": 9283, "\ub85c": 29143, "'),": 4829, "\u2581\u043f\u0440\u0430\u0432\u0438": 18534, "\u2581heap": 22340, "plement": 3793, "ability": 2437, "\u2581explains": 15157, "cule": 27969, "\u2581bem": 28111, "\u2581\u0420\u0438": 19752, "\u2581fitted": 21163, "\u2581knowledge": 4788, "\u2581Ken": 8885, "\u2581werd": 7680, "\u2581Dance": 21015, "\uc62c": 31519, "chant": 11746, "\u2581luc": 22144, "\u2581\u043e\u043f\u0435\u0440\u0430": 24889, "Wall": 27046, "\u2581Incre": 24377, "j": 28768, "<0xBE>": 193, "vs": 10296, "\u2581Primary": 25938, "onial": 23621, "dl": 9778, "\u2581Movement": 25361, "blk": 17461, "\u2581wouldn": 4048, "Aff": 25683, "\u804c": 31353, "organ": 8974, "\u30bb": 29932, "ey": 1437, "lers": 8531, "\u2581enabled": 9651, "thlet": 10016, "\ud544": 30427, "\u00d8": 29287, "domain": 8692, "INCLUDING": 27446, "\u2581resent": 26159, "<0x8D>": 144, "jack": 19181, "azu": 22960, "\u2581prote": 2096, "\u2581costs": 6966, "wise": 3578, "idea": 28366, "\u2581Number": 8978, "`)": 25920, "\u2581Pas": 12184, "\u2581smallest": 22341, "\u0440\u043e\u0432\u0438\u0447": 27217, "\u2581participate": 14092, "\u2581stag": 19399, "ising": 2979, "\u2581Jacob": 12615, "\u2299": 30669, "platz": 23591, "\u0447\u0435\u043d\u0438\u0435": 18326, "\u2581minimal": 13383, "\u2581members": 3338, "hi": 5365, "shader": 27049, "lying": 4089, "not": 1478, "\u2581custom": 2460, "\u0643": 29171, "\u2581defe": 8464, "\u2581arguing": 21440, "\u0160": 28966, "utsch": 7732, "\u2581\u0434\u0438\u0432\u0438\u0437\u0438": 27728, "\u2581heels": 22822, "\u76f8": 29367, "Services": 12926, "padding": 13712, "submit": 13816, "\u2581thoughts": 7403, "\u2581IF": 14184, "\u2581\u043e\u0431": 2802, "\u2581assist": 6031, "atch": 855, "\u2581which": 690, "packed": 26713, "\u0440\u043e\u043a": 26531, "\u2581Major": 10664, "\u2581ersten": 15449, "\u5341": 29927, "\u6211": 29242, "\u2581voy": 15545, "Yes": 5613, "oooo": 24438, "pin": 10002, "\u2581young": 2518, "\u2581Steve": 10581, "\u2581formerly": 26422, "\u2581params": 6150, "\u2581hiring": 21349, "\u2581reports": 7959, "\u2581Bast": 27241, "'*": 21244, "anced": 3692, "\u2581seat": 7278, "\u2581sha": 23671, "\u8fed": 31820, "\u2581Plot": 27171, "\u2581laboratory": 24583, "\u2581universe": 11717, "\u2581Tree": 14653, "new": 1095, "\u2581affection": 21147, "\u2581jealous": 21176, "/*": 1477, "urance": 4935, "\u2581graduated": 19215, "\u2581studio": 9659, "\u2581cope": 27626, "isme": 10425, "\u2581Win": 11035, "<0xC6>": 201, "\u0447\u0430": 1956, "\u2581Kentucky": 21509, "\u2581under": 916, "\u2581se\u00f1": 23944, "\u2581chant": 25957, "\u094d": 29300, "geq": 7834, "gro": 25344, "\uf0a7": 30624, "\u2581table": 2401, "\u0446\u0438\u044e": 20483, ".,": 2063, "\u4e71": 31380, "lete": 2041, "fit": 7785, "\u2581git": 19163, "\u2581official": 5189, "\u2581flick": 15850, "\u5473": 31170, "pio": 14662, "\u2581flood": 17268, "\u5fd7": 29796, "autor": 28160, "\u2581mientras": 22188, "\u00ce": 28992, "\u0cbe": 31026, "\u2581utilis": 25090, "\u2581Whether": 9989, "Override": 3398, "\u2581tablet": 24296, "your": 19262, "\u2581give": 2111, "\u2581Hi": 15359, "doc": 4196, "\u2581mess": 4687, "\u2581Sver": 28238, "vi": 5219, "\u2581ink": 20195, "\u2581Paper": 20038, "\u2581gross": 17725, "\u2581incorporated": 23799, "\u2581continuing": 15317, "uated": 25473, "\u2581challenges": 10369, "prison": 20485, "Call": 3001, "sm": 2762, "\u2581fundamental": 11854, "\u5712": 31299, "\u2581pulling": 13672, "\u2581diab": 17571, "\u2581risk": 4623, "\u2581NC": 14343, "\u2581Reagan": 26294, "\u2581pretty": 3468, "/*!": 19994, "essed": 9740, "\u4f7f": 29154, "\u2581vacuum": 18362, "each": 8365, "unate": 26655, "\u2581U": 500, "Visual": 21551, "\u2581abuse": 12476, "night": 6988, "\ub370": 29969, "\u2581Heinrich": 22846, "ich": 539, "\u2581Pour": 15540, "Sink": 25512, "\u2581abrupt": 21735, "\u2581trailing": 27166, "\u2581shiny": 27348, "ono": 5875, "ieb": 25295, "\u2581Cost": 9319, "license": 16576, "**:": 9189, "\u2581Horse": 25463, "PE": 1767, "Install": 25868, "\u00e9ra": 18924, "igkeit": 17134, "\u2581scatter": 11190, "ql": 2981, "ivid": 2397, "<0x4E>": 81, "Item": 2042, "\u2581DEFAULT": 17537, "\u2581pres": 1258, "mon": 2640, "\u2581Kill": 25262, "igma": 2898, "adelph": 14255, "}({\\": 22845, "od": 350, "\ub9c1": 31689, "\u5723": 31572, "%%%%%%%%": 18849, "\u2581Freedom": 22429, "\u0562": 31293, "\u2581assertTrue": 21923, "\u6c5f": 29920, "INGS": 26559, "textrm": 18118, "\u0441\u0435": 2313, "\u2581priests": 27677, "\u2581shoulders": 10693, "Fac": 20286, "\u2581lev": 16100, "\u96f2": 31986, "<0x90>": 147, "riev": 10212, "\u2581sod": 19769, "}}": 975, "cia": 5011, "\u2581families": 6812, "\u2581Pan": 7687, "\u2581Sud": 9099, "\u2581\u0444\u0435\u0432\u0440\u0430": 25224, "\u2581seventh": 25650, "\u0441\u043b\u0430\u0432": 18989, "\u2581exception": 5851, "\u2581Frank": 4790, "ES": 2255, "erta": 21313, "atis": 26709, "\u2581BASIS": 12259, "\u2581internation": 17861, "\u2581drink": 4663, "doors": 25261, "\u2581\u0219i": 6944, "dr": 2922, "available": 13952, "\u2581cb": 15623, "rs": 4586, "\u2581oder": 7765, "\u5149": 29762, "rollment": 27518, "\u2581homes": 9039, "umph": 14170, "descriptor": 17325, "ployed": 28246, "\u2581bounds": 14594, "BS": 8340, "\u2581showing": 8102, "\u2581intentions": 25087, "\u2581Dog": 13311, "\u2581Cast": 6440, "\u2581Deal": 27734, "));": 1090, "Options": 4018, "\u2581weather": 8086, "\u2581vend": 13479, "\u2581Ra": 11074, "eters": 2612, "Inline": 19034, "manager": 9307, "\u2581mater": 17613, "uren": 11239, "\u001f": 31217, "\u2581observation": 15379, "\u2581high": 1486, "\u5212": 30791, "\u2581funeral": 18979, "\u2581federal": 8432, "TestCase": 18268, "oint": 804, "vin": 8830, "Handle": 6028, "\u5ddd": 30133, "mesh": 18372, "\u2581nor": 4678, "rence": 8462, "ugar": 18195, "\u2581elseif": 25026, "\u0430\u043d": 2239, "robe": 26151, "\u2581snap": 17433, "\u2581Fil": 4059, "yard": 10892, "\u2581overcome": 17132, "\u0423": 28890, "\u2581coaching": 21464, "\u090f": 31014, "\u2581extract": 9131, "\u2581Wend": 23025, "\u2581garbage": 20170, "son": 1265, "fas": 17284, "\u2581Child": 8183, "erna": 17995, "amine": 21928, "mob": 28483, "\u2581miner": 23548, "ine": 473, "unto": 16665, "\u2581LICENSE": 16225, "iced": 5200, "\u2581similarly": 21922, "ots": 1649, "\u2581WAR": 6180, "ipt": 14345, "logo": 17506, "nex": 19949, "\u2581\u043f\u0430": 6890, "avi": 17101, "fmt": 8920, "\u2581dough": 24511, "\u17c1": 31396, "\u2581maid": 23408, "\u2581When": 1684, "IAL": 11104, "\u2581Bon": 8500, "\u9996": 29993, "Skip": 24322, "Constant": 11602, "\u2581radial": 28021, "\u2581\u0433\u0434\u0435": 17912, "\u2581},\r": 20692, "\u2581frances": 17923, "\u2581ven": 6780, "mes": 4137, "\u2581sole": 11150, "dma": 11492, "\u0434\u0435\u043b\u0430": 19656, "\u2581attribut": 19096, "\uff5e": 30328, "\u2581rings": 18947, "\u00e8ce": 20456, "erved": 8065, "cio": 12636, "\u2581embarrass": 13648, "istributions": 25043, "\u2581safe": 5023, "hib": 4944, "\u2581strongly": 12287, "\u2581HAVE": 22769, "foreach": 15160, "\u2581supply": 8002, "\u2581Io": 25445, "\u2581focused": 9045, "\u2581\u043d\u0430\u0441\u0435\u043b\u0435\u043d\u0438\u044f": 23031, "\u2581perf": 16385, "\u2581Catherine": 20126, "\u6240": 29163, "\uac12": 29755, "\ub529": 31836, "\u2581rand": 27586, "Views": 24252, "Host": 7287, "nis": 11765, "\u0bb3": 31069, "Autowired": 26088, "\u2581Bro": 4168, "\u2581surveys": 28254, "issa": 13723, "\u2581#[": 9002, "\u2581shelves": 28201, "\u2581Clear": 16676, "\u2581Spiel": 14755, "\u2581\u0435\u0433\u043e": 9333, "\\+\\_\\": 26382, "\u2581\u043e\u0441\u043d\u043e\u0432": 16810, "\u2581corresponds": 16535, "nab": 7563, "\u2581GR": 19348, "?!": 18023, "\u2581gover": 2116, "\u2581sede": 26784, "oku": 17776, "\u2581Vik": 20820, "\u2581Buy": 14824, "slot": 12685, "\u2581opportunities": 8812, "sed": 10192, "\u2581innovation": 16863, "nde": 18773, "MESS": 18747, "\u2581Hong": 12966, "\u2581meas": 5849, "oto": 2587, "\u2581freedom": 8467, "\u2581Definition": 24382, "\u2581Res": 1992, "oko": 18890, "klass": 24660, "DEV": 7341, "\u2581sessions": 13912, "\u2581\u0422\u0435": 15074, "\u0433\u0434\u0430": 13872, "\u2581\u043f\u0435": 8153, "\u2581rejo": 26351, "\u2581oppos": 5793, "\u2581centers": 18015, "Vari": 6840, "\u2581funding": 12131, "view": 1578, "\u04b3": 31856, "Bas": 10836, "\u00ac": 29873, "\u2581philos": 28039, "<0x29>": 44, "help": 11538, "peon": 18019, "\u2581dil": 15872, "sk": 1252, "pie": 9053, "ires": 3053, "\u2581facilities": 11675, "LT": 24913, "\u2581tightly": 22374, "\u2581Batt": 17546, "Serialization": 21046, "black": 10323, "\u2581distance": 5328, "\u2581Technology": 12511, "anya": 19791, "\u2581Rab": 17467, "\u2581company": 2496, "\u0391": 29411, "werk": 16817, "\u2581Carlo": 21167, "alin": 18107, "\u2581dressed": 12452, "\u2581complement": 16696, "\u2581realizing": 27494, "\u2581inside": 3416, "uto": 8487, "\u2581muscles": 15922, "<0xD7>": 218, "qu": 364, "\u2581\u0430\u043d": 23706, "oric": 16891, "\u0688": 31489, "\u2581){": 22931, "eclipse": 14871, "\u2581\u041d\u043e": 11058, "\u2581Nag": 17482, "\u2581quand": 27462, "built": 12747, "\u2581just": 776, "\u2581Philipp": 15105, "\u2581prv": 24949, "\u541b": 31097, "City": 22013, "\u2581planning": 7394, "rd": 5240, "perf": 24663, "Broad": 26418, "\u2581Red": 3690, "har": 10327, "\u2581nej": 25699, "??": 8908, "br": 1473, "cr": 3810, "\u2581Universit\u00e4t": 24290, "\u2581'.": 14067, "\u1edf": 30849, "\u00a4": 30445, "await": 13513, "\u2581jazz": 19460, "\u2581devient": 23125, "\u05e3": 31016, "l": 28714, "\u2581cook": 4600, "shirt": 21122, "\u2581Nancy": 18908, "\u2581comprend": 23913, "iona": 17647, "\u2581debut": 9928, "\u2581lb": 23441, "ashion": 7106, "Ad": 3261, "\u2581clip": 13061, "\u2581Different": 27588, "\u2581Node": 10127, "interpret": 16789, ".}": 8089, "\u2581police": 4758, "ubl": 12337, "\u2581-\\": 12300, "arms": 18466, "\u2581ingredients": 13506, "\u2581Ridge": 25440, "\u2581Virgin": 8471, "Axis": 16272, ")).": 8698, "\u2581Michigan": 13642, "tcx": 25931, "\u2581Television": 22730, "\u2581unre": 27011, "allas": 14531, "\u2581port": 2248, "Dem": 16989, "\u2581Agricult": 23837, "ends": 2827, "\u00e7a": 10456, "<0x0C>": 15, "\u2581\u0404": 22514, "\u2581inhib": 22358, "\u2581prediction": 19386, "virtual": 16604, "\u2581*/,": 26349, "\u2581NS": 12043, "\u2581armed": 14630, "\u79cd": 29824, "\u2581underneath": 21901, "\u25a1": 30618, "\u2581Individual": 27739, "\u2581likelihood": 24277, "irtschaft": 17020, "forEach": 14182, "\u2581buffers": 28600, "sprintf": 27292, "Ma": 20494, "weg": 12730, "\u2581\u0420\u0435": 9392, "\u2581patri": 17668, "\u2581IMP": 15347, "\u2581\u0441\u0442\u043e\u0440\u043e": 28392, "\u2581replace": 9013, "\u2581sacred": 21079, "\u2581poured": 20508, "\u2581hydro": 15208, "supported": 11771, "umbing": 27010, "\u2581\u043a\u0430\u043e": 25501, "Work": 6058, "latest": 21528, "\u2581forced": 7207, "show": 4888, "ors": 734, "\u2581tard": 16796, "mons": 22863, "\u2581indirect": 20690, "some": 11183, "\u96be": 31407, "\u2581harm": 6241, "\u2581Captain": 11410, "Have": 12341, "\u2581cs": 7428, "\u2581Al": 976, "pez": 19033, "rypted": 16632, "\u2581elements": 5176, "buff": 10132, "\u2581septiembre": 25403, "well": 5458, "\u9910": 31243, "\u2581Hel": 5424, "\u2581basic": 6471, "\u2581sixteen": 24453, "ttes": 21067, "\u2581fur": 2982, "iring": 5549, "\u2581stopping": 17203, "\u2581assure": 25510, "people": 21721, "Mvc": 18261, "\u1ecd": 30097, "ser": 457, "\u2581years": 1267, "poss": 6338, "Initialized": 24923, "\u2581keeps": 11478, "\u2581d\u00e4r": 18603, "\u2581\u0420\u043e\u0441\u0441\u0438": 13325, "inian": 19628, "pages": 9929, "\u91d1": 29452, "Document": 7364, "sem": 5367, "\u2581Special": 8942, "\u2581decay": 15224, "\u2581scientific": 10469, "EqualTo": 24680, "\u2581Camera": 24361, "\u2581\u0440\u0430\u0437": 5234, "\u2581decade": 12250, "MAIN": 19039, "COMMAND": 26829, "\u00ec": 28943, "STRING": 10505, "\u2581\u043e\u0431\u0449\u0435": 18556, "\u2581Beth": 17822, "\u2581Connect": 21873, "\u2581paused": 14623, "\u0438\u043b": 24962, "\u1789": 31901, "essen": 21951, "Vel": 24351, "\u2581producing": 15345, "\u2581\u0411\u0435\u0440": 23161, "rsp": 25341, "aml": 13148, "\u2581films": 9922, "\u2581\u010c": 13525, "elem": 12034, "\u4f18": 30077, "\u2581Terry": 21373, "\u2581cons": 1102, "<0x4B>": 78, "unit": 5306, "\u2581developer": 21782, "]}": 9205, "\u2581Aw": 21960, "\u2581feas": 25953, "<0x7A>": 125, "About": 22261, "uesday": 10684, "\u2581unos": 27174, "\u2581Exper": 11135, "Love": 23220, "ICT": 22521, "\u2581Ped": 11943, "\u2581accum": 14341, "\u10db": 29629, "\u2581lobby": 18891, "Bundle": 12409, "ellers": 21877, "Text": 1874, "\u4e4c": 31854, "\\\":": 17357, "li": 1144, "plan": 11009, "\u0446\u043e": 19812, "String": 1154, "tilde": 5178, "row": 671, "\u2581Pri": 12170, "ru": 551, "\u21b3": 31416, "\u2581GL": 8537, "\u3089": 29572, "\u0441\u043b\u0430": 14669, "\u2581Target": 15255, "ork": 580, "\u2581TCP": 23007, "\u2581rip": 21832, "\u2581active": 5038, "Expression": 8055, "\u0361": 29804, "Init": 4516, "}.": 2051, "\u30dc": 30342, "cen": 15698, "\u2581joined": 7298, "\ud83d\udd34": 31928, "\u2581p\u0159\u00ed": 23582, "\u0441\u0442\u0432\u043e": 4492, "kol": 16592, "\u2581join": 5175, "\u2581bacter": 17884, "ster": 2406, "ije": 11119, "initely": 17530, "herent": 21891, "\ud83e\udd37": 29905, "\u2581brew": 18098, "\u2581champions": 27345, "\u2581functional": 14573, "lic": 577, "\u2581Soul": 20432, "\u2581communication": 8520, "listen": 20246, "\u7ec7": 31500, "\u51c6": 30168, "\u2581\"+": 16553, "\u2581membres": 28356, "\u9884": 30098, "\u2581commissioned": 28296, "\u2581Bou": 14574, "\u2581dispute": 22299, "dar": 22421, "swing": 11064, "\u5757": 29739, "\u2581asked": 2261, "iving": 2449, "\u9a6c": 30259, "\u2581Berlin": 8430, "\u6d25": 31225, "\u043b\u0438\u044f": 13124, "ICES": 22285, "ERR": 2986, "riors": 18152, "\u2581den": 1457, "\u2581inline": 12901, "\u2581EVENT": 18693, "\u2581toler": 13393, "\u02b2": 30280, "\u7a0d": 31425, "appe": 6553, "*.": 2414, "\u2581\u043a\u044a": 21340, "\u2581cake": 14833, "\u2581birth": 5950, "\u2581electronic": 13176, "\u2581\u043a\u0438": 12902, "\u2581Contribut": 26015, "\u2581alumin": 22894, "tract": 2107, "oth": 999, "\u00f6lker": 26087, "\u2581recycl": 20115, "Sn": 10187, "Policy": 7755, "\u2581projected": 25638, "\u2581harder": 11783, "\u2581throat": 10807, "\u2581appreci": 7415, "\u2581XX": 12931, "\u10d1": 29704, "\u2581Bridge": 15050, "\u2581rights": 4495, "RA": 5244, "\u2581requirement": 16169, "\u81ea": 29159, "RL": 5419, "\u2581Date": 5491, "\u2581fame": 24665, "\u10ee": 30306, "\u2581operand": 27455, "vee": 27579, "\u03b2": 29152, "\u2581utter": 14870, "fab": 17547, "\u2581expected": 3349, "\u2581explosion": 22258, "\u0437\u044c": 14935, "\u2581thou": 28112, "\u05b0": 30061, "\u2581ih": 5837, "\u0441\u044c\u043a\u0438\u0445": 19799, "\u043d": 28778, "Blob": 22388, "\u2581arrangements": 20229, "\u2581rs": 19292, "<0xB2>": 181, "stra\u00dfe": 20134, "\u2581belonging": 23921, "estival": 6805, "uffix": 18020, "\u2581River": 6396, "\u043a\u0442\u043e\u0440": 14134, "\u2581Kong": 12544, "\u2581platform": 5181, "`": 28832, "\u2581typ": 2514, "did": 18568, "USB": 16323, "\u2581Thomas": 6083, "Collections": 10211, "\u2581gele": 22933, "\u2581candidates": 12179, "ospel": 19432, "\u2581\u0414\u0435": 11720, "\u2581fall": 2949, "indent": 10388, "\u2581demon": 5762, "\u2581repo": 27716, "\u2581\u0424\u0438": 18187, "\u2581dire": 3247, "\u0433\u043e\u0432": 25873, "\u2581madre": 26032, "\u2581aside": 10276, "\u2581television": 8575, "\u5462": 31351, "($_": 14076, "\u1e6c": 31658, "CTL": 13504, "usion": 3623, "org": 1909, "\uc5b8": 30856, "\u2581Collection": 13079, "atoes": 14888, "Fatalf": 28423, "ig": 326, "\u515a": 31562, "subscribe": 19128, "\u2581Blo": 9797, "ood": 1004, "Configuration": 6365, "\u2581transition": 8265, "\u7f57": 30767, "Receiver": 26591, "\u697c": 30309, "auch": 21300, "ijing": 25168, "\u2581M\u00e9": 16786, "\u2581Got": 14399, "naissance": 24944, "\u56f4": 30174, "shots": 26339, "\u30ed": 29501, "\u2581fino": 22662, "\u2581grows": 20382, "sizeof": 9936, "pragma": 20812, "\u2581ACT": 26535, "\u2581\u043f\u0435\u0440": 7726, "\u2581But": 1092, "\u2581f\u00f6r": 4793, "\u2581providers": 14314, "elt": 1807, "\u2581establish": 7507, "\u2581menu": 8514, "\u2581bases": 20201, "\u2581saddle": 27343, "\u2581estimates": 16438, "gh": 591, "\u2581entrepreneur": 23248, "\u2581knees": 13431, "\u2581Apple": 10244, "\u0434\u043d\u043e": 14368, "angled": 21086, "\u2581injury": 11254, "\u2581Gets": 14914, "efficient": 28627, "\u03c0": 29030, "<0xE3>": 230, "\u2581boss": 10949, "paid": 26283, "\u2581layout": 9866, "\u2581Friday": 8085, "\u2581campo": 23346, "\u2581trav\u00e9s": 26185, "\u2581\u0436\u0438\u0432\u0435": 26838, "ITY": 4966, "\u2581[-": 28099, "\u2581print": 2682, "\u2581Finally": 8126, "\u00e9ment": 22952, "ahu": 26113, "\u4ed3": 31263, "=\"$": 24235, "\u2581Paulo": 22149, "\u2581Language": 15589, "\u2581living": 3687, "atori": 13191, "\u2581hips": 25760, "\u2581prob": 2347, "\u52c7": 31920, "mary": 2754, "\u2581Wind": 13558, "\u2581purely": 21690, "tabular": 10972, "\u2581\u0440\u0435": 3172, "\u2581il": 1521, "<0x57>": 90, "\u2581Invalid": 17275, "\u2190": 29787, "trl": 11276, "<0xA9>": 172, "->_": 9631, "\u5e27": 30821, "\uccab": 31745, "ians": 3693, "\u2581PG": 27793, "ADDRESS": 25100, "\u2581Collins": 21191, "\u2581Gall": 14225, "\u2581Crime": 25126, "\u2581pump": 12048, "\u2581leaf": 15080, "\u2581ordin": 28058, "\u2581order": 1745, "\u2581Table": 7582, "\u2581cycle": 10061, "\u2581stability": 16137, "\u2581\u0444\u0438": 8456, "\u8d34": 30022, "owych": 17842, "\u0e21": 29373, "\u2581naam": 14276, "\ub2f9": 30287, "\u2581`${": 22468, "\u2581particip": 4105, "Double": 10260, "\u56de": 29034, "\u2581\u0432\u043e\u0439\u043d\u044b": 24651, "\u2581Track": 13907, ")|": 12362, "asure": 3275, "\u0119p": 21655, "shaped": 21501, "ITEM": 19977, "\u2581create": 2231, "\u2581Institute": 8624, "\u044e\u0449\u0438\u0439": 25036, "Based": 24207, "wrapper": 14718, "ds": 3673, "cembre": 18764, "\u0449\u0435\u043d": 17612, "\u9806": 31717, "\u2581st": 341, "\u2581wrapper": 18491, "\u1f21": 31990, "\u2581remarked": 28357, "\u2581King": 4041, "nate": 25134, "urbed": 22306, "\u2581vertex": 14183, "ZERO": 28303, "hostname": 27278, "\u2581tree": 4718, "\u2581except": 3741, "leep": 3109, "two": 10861, "()]": 21183, "\u2581dict": 8826, "inski": 27387, "lock": 1607, "ancel": 8046, "\u0087": 29924, "\u2581Australia": 6664, "\u2581aware": 5635, "\u2581directory": 9118, "\u2581broken": 7098, "\u2581rival": 16564, "olut": 1420, "\u2581bounded": 17443, "\u2581everywhere": 11321, "\u2581\u0447\u0442\u043e": 7061, "\u2581decom": 18626, "\u2581mainly": 11464, "\u2581sizeof": 4619, "\u2581curl": 28306, "\u043d\u043d\u044f": 14704, "\u2581zip": 17955, "rup": 7064, "current": 3022, "\u2581Mediterranean": 26848, "&\\": 12331, "\u2581England": 5783, "\u2581earlier": 5585, "\u2581stars": 7448, "\u2581Green": 6248, "\u2581Reb": 15794, "\u2581art": 1524, "<0x9C>": 159, "yles": 5396, "ass": 489, "\u5355": 29113, "Conne": 4523, "\u0417\u0430": 20530, "\uc22b": 31330, "Grid": 8625, "day": 1466, "\u2581Field": 8246, "\u2581Okay": 19811, "R": 28754, "\u2581scholarship": 25620, "\u2581infected": 26557, "comm": 1805, "\u2581formally": 25491, "\u2581Pe": 3242, "\u2581|": 342, "\u2581\u043e\u0441\u043e\u0431\u0438": 27953, "actor": 6875, "\u2581Imagine": 22031, "\u2581permet": 14632, "\u2581chall": 4233, "ventory": 16917, "\u2581appearances": 21190, "mathbf": 3505, "\u2581mant": 14201, "\u2581holding": 6632, "\u043f\u0440\u0430": 7143, "\u2581conflic": 17358, "\u2581\u0436\u0438": 7157, "\u2581Cons": 5504, "\u2581prim": 2413, "\u2581northern": 12727, "\u2581Din": 20325, "rai": 27097, "\u6b63": 29302, "\u2581Finale": 27721, "zd": 13335, "Table": 3234, "\u2581wore": 12003, "\u2581Mathemat": 26698, "\u2581bis": 4505, "\">\r": 14980, "=\"<?": 16294, "rust": 19842, "ph": 721, "\")]": 6564, "\u2581technologies": 14880, "\u2581camps": 18497, "\u2581\u0446\u0435": 13536, "\u2581coordinate": 17237, "\u2581Although": 5800, "\u2581EV": 10752, "\u2581Mer": 5625, "ismo": 7027, "\u2581transparent": 20175, "\u2581abandoned": 14818, "andom": 3318, "\u2581quadr": 24053, "\u2581accepting": 22368, "becca": 24696, "\u2581runner": 22125, "\u00f1a": 8842, "lez": 19557, "{})": 21914, "\u2581Muham": 24323, "MAC": 13037, "\u2581drift": 18101, "\u2581Shanghai": 28410, "<0xB5>": 184, "DC": 6513, "Assign": 23572, "\u2581hi": 12014, "isp": 10391, "enter": 7262, "ermine": 21824, "\u2581blocks": 9478, "UNK": 18571, "\u0e10": 31348, "\u2581could": 829, "ests": 5946, "\u1005": 31708, "trained": 28247, "\u2581fert": 16559, "\u2581fraction": 14005, "\u2581\u0444\u0443\u043d\u043a": 28668, "\u2581pok": 16004, "method": 4350, "\u2581League": 6165, "\u2581occ": 2271, "\u0392": 30431, "\u05dd": 29398, "\u2581draw": 3924, "\u2581guards": 16113, "\u2581beautifully": 27088, "abstract": 15474, "Reset": 13709, "\u2581\u0447\u0435\u043c": 23345, "\u2581hacia": 21675, "\u2581Publishing": 26999, "\u2581structured": 28429, "\u2581buff": 4325, "\u2581\u043f\u0430\u0440": 11894, "\u02bb": 29595, "oki": 23778, "\u2581cub": 13563, "mal": 10009, "\u2581analytics": 28669, "imgur": 26822, "Window": 3899, "\u79c1": 30593, "\u2581down": 1060, "ice": 535, "\u044f\u0431\u0440\u044f": 12251, "\u2506": 31172, "\u7522": 31657, "unately": 21944, "\u2581et": 911, "System": 3099, "Unmar": 20630, "\u2581Medal": 21097, "\u2581collect": 5902, "\u2581Points": 24304, "re": 267, "\u2581occas": 11383, "\u2581waar": 14995, "\u2581California": 6247, "\u2581Types": 25201, "nant": 19352, "\u2581Cele": 24779, "\u2581Leon": 11615, "Bitmap": 20623, "plements": 9612, "i\u00e7\u00e3o": 18992, "\u2581straight": 4855, "\u6dfb": 29445, "\u2581Ut": 13830, "]<": 14626, "\u2581appoint": 6904, "\u2581\u2581\u2581\u2581\u2581\u2581\u2581\u2581\u2581\u2581\u2581\u2581": 558, "\u0432\u0448\u0438\u0439": 27386, "\u2581Lew": 10860, "\u2581Cohen": 28611, "\u2581lac": 24722, "solid": 27344, "\u2581massage": 20473, "serial": 12355, "\u2581racist": 19139, "\u2581sense": 3367, "alling": 20441, "\u2581lo": 1448, "\u2581infl": 3661, "\u2581astronom": 27486, "\u2581correl": 22489, "eline": 4661, "\u0336": 31107, "Num": 5418, "\u2581Human": 10649, "\u2581Jak": 18779, "\u2581enjoy": 3555, "specially": 18647, "\u2581\u00e9gal": 12951, "formance": 11778, "BPACK": 15947, "Let": 8779, "hold": 5750, "\u2581sep": 26007, "\u2581Viet": 11224, "\u2581entity": 9040, "necess": 17172, "\u2581\u0430\u043b": 28351, "ulate": 6212, "\u2581Index": 12348, "DOWN": 17601, "\u2581ihre": 17080, "\u2581CRC": 20731, "\u2581Hindu": 25974, "\u0437\u0456": 13566, "Filename": 24773, "portun": 3766, "netdev": 25583, "rb": 9312, "Dom": 7781, "\u0441\u0443\u0434\u0430\u0440": 16747, "tml": 7684, "Workspace": 27474, "\u2581easily": 5061, "\u2581Hannah": 24124, "\u2581ly": 18467, "\u2581\u0420\u043e\u0441\u0441\u0438\u0438": 19180, "\u2581talks": 15066, "fprintf": 23833, "\u2581ugly": 19279, "STR": 4572, "\u2581cod": 18128, "\u2581Commission": 9238, "\u2581open": 1565, "\u2581gonna": 9575, "\u2581philosoph": 8829, "\u2581gioc": 27491, "GPIO": 18563, "ensional": 9723, "\u2581Beg": 25572, "\u2581perturb": 19063, "ides": 1926, "\u2581fee": 10351, "\u2581casino": 13638, "\u2581materials": 7069, "\u2581politique": 19885, "\u2581voor": 5528, "\u2581fou": 19893, "\u00fclet": 24190, "ferred": 9497, "GUI": 21778, "\u9879": 29541, "\u2581stand": 1876, "CHECK": 8856, "ary": 628, "can": 4230, "\u2581rang": 16451, "\u2581pan": 3961, "ocument": 2048, "\u2581minute": 7117, "n\u011b": 9176, "SINGLE": 26117, "gow": 22439, "\u2581dawn": 16678, "met": 2243, "ptember": 3666, "\u2581song": 4034, "\u2581Fisher": 22174, "function": 2628, "\u2581(_": 9453, "\u2581Student": 15965, "\u2581message": 2928, "ilda": 27834, "\u2581inequality": 17522, "is\u00e9": 17218, "\u2581animal": 8527, "\u2581neutral": 14214, "\u2581society": 6190, "\u2581nerves": 28686, "\u2581traveled": 19948, ")-": 9572, "ails": 2014, "\u2581accurately": 24329, "\u2581Cle": 12132, "\u2581arriv": 4266, "\u2581Created": 22982, "\u2581Fran\u00e7": 13514, "\u2581Position": 17361, "flat": 21139, "isArray": 28000, "\u2581dropping": 19183, "\u2581Perm": 17627, "MMMM": 27509, "options": 3538, "Ah": 17114, "audio": 11203, "}$)": 28511, "iterator": 11188, "\u00e1g": 8043, "\u2581Ta": 14247, "\u2581THIS": 13624, "\u2581Penn": 11710, "\u041a\u043e": 24037, "\u2581had": 553, "\u2581Bernard": 16784, "\u2581Energy": 14270, "\u2581opacity": 26355, "oster": 8731, "\u2581Choice": 27710, "Upper": 22225, "\u2581selection": 7495, "Button": 3855, "\u306e": 28993, "Validation": 14355, "\u958b": 30068, "<0x5C>": 95, "\u2581multi": 6079, "\u2581Mask": 23919, "ensuremath": 9104, "<0xF1>": 244, "eing": 21458, "\u1ee7": 30190, "value": 1431, "\u00e9re": 24454, "\u2581worked": 4198, "\u2581refund": 20106, "aired": 27183, "\u2581mig": 16089, "\u2581critical": 7276, "itten": 3149, "\u2581carried": 7158, "\u043b\u0430\u0432": 9032, "owym": 24547, "\\}$": 17006, "\u0444\u0435": 8633, "called": 11565, "UB": 6870, "<0x76>": 121, "\u2581Sin": 11794, "\u2581cage": 25807, "writing": 19061, "\u76df": 31778, "\u2581feature": 4480, "rey": 6439, "\u2581Rob": 5776, "anten": 23601, "^+": 12803, "\u2581\u00e1": 8533, "othes": 6317, "\u2581holds": 8288, "\u2581FR": 27790, "<0xEB>": 238, "Flow": 13444, "Renderer": 13812, "\u2581Sm": 3539, "RET": 12388, "\u2581Ul": 12063, "\u0434\u0435\u0440": 11078, "\u2581corridor": 21550, "`);": 28682, "OPTION": 18180, "\u2581discuss": 3342, "\u2581dessen": 23092, "\u2581Rud": 15010, "\u2581stim": 12556, "Native": 12557, "\u2581\u0432\u043e\u0437": 11235, "\u2581indicates": 12825, "\u2581wildlife": 28043, "\u2581detection": 15109, "CLU": 28354, "Curve": 27777, "}{\\": 3803, "\u2581Gold": 5792, "\u2581+": 648, "\u043b\u0430\u043d": 10328, "\u2581Chile": 17406, "\u2581exclusively": 21437, "\u2581Est": 3978, "\u2581dem": 1493, "\u2581replaced": 8939, "ab": 375, "Cache": 5622, "7": 28787, "\u2581lid": 16006, "FTWARE": 14406, "Sem": 21565, "\u2581negl": 24540, "ima": 4250, "\"))": 4948, "hu": 9538, "\u2581voyage": 21982, "\u2581Samsung": 26845, "\u2581housing": 11821, "\u0419": 28996, "\u2581sport": 8198, "\u2581obst": 13364, "\u2581festival": 14416, "]+": 13381, "poll": 15598, "\u8c37": 30894, "\u2581tamb\u00e9m": 17591, "alk": 1093, "\u2581clk": 28607, "Assert": 8715, "Invoke": 21764, "Fr": 2642, "\u2581tremend": 20555, "ilibrium": 21092, "\u2581Can": 2418, "\u2581dust": 9188, "\u2581murm": 17683, "\u0926": 30046, "vir": 28114, "\u2581both": 1560, "\u2581mainstream": 23199, "\u2581lip": 11144, "\u2581Route": 15593, "\u2581Network": 9488, "\u2581www": 9404, "\u3075": 31896, "\u6267": 29556, "ervices": 5914, "Ns": 26792, "\u9f50": 31324, "\u2581->": 3193, "\u2581various": 4118, "idades": 11520, "\u01a1": 29734, "\u2581metal": 7503, "\u2581Gar": 7721, "\u2581Alice": 14003, "ifi": 10273, "\u2581captain": 13565, "\u2581opin": 5693, "\u2581###": 774, "icious": 10573, "bit": 2581, "\ud070": 31694, "\u2581chamber": 16115, "\u040b": 30888, "\u2581related": 5202, "\u2581novel": 7092, "Resolver": 16695, "\u2581{{": 13949, "aval": 12239, "glob": 23670, "gp": 8399, "iq": 26325, "\u2581stuff": 4705, "Enumerable": 25303, "\u2581Louise": 23928, "comment": 9318, "\u666e": 30571, "xB": 18674, "\u2581dedicated": 10383, "\u2581uit": 5478, "\u2581attended": 12359, "\u2581recipe": 13405, "\u2581symptoms": 12380, "\u2581Bi": 6345, "\ud83c\udf0d": 31057, "chunk": 13567, "\u00d0": 30305, "\u5c97": 31983, "Sample": 15717, "\u2581iter": 6854, "(_": 4831, "msm": 14289, "\u2581German": 5567, "\u00e9g": 4970, "\u2581music": 3427, "\u2581Miller": 13674, "ias": 2995, "icide": 12414, "\u5a92": 31838, "\u0ca8": 31066, "Val": 2637, "neurs": 24283, "\u2581copied": 23773, "\u2581enc": 2524, "perform": 28340, "\u2581ship": 4309, "path": 1740, "\u2581det": 1276, "\u2063": 31212, "ielte": 22360, "\u2581Espa\u00f1a": 20482, "\u2581Para": 19562, "\u043d\u0438\u0447\u0435": 17856, "incip": 3480, "ini": 3494, "lege": 3528, "\u2581published": 4775, "\u2581clock": 9917, "god": 21416, ".\"_": 26408, "ever": 1548, "\u017b": 29060, "\u2581ensuite": 26368, "\u2581higher": 4337, "\u6839": 29521, "\u6d32": 31564, "\u62c5": 31950, "super": 8554, "inc": 1814, "uations": 22190, "ying": 2983, "ACTION": 17615, "Resolve": 28487, "Azure": 17019, "tan": 20999, "\u0433": 28810, "\u2581fashion": 8844, "\u4e60": 30978, "option": 4694, "\u2581luglio": 27059, "\u2581clinic": 24629, "\u2581Assembly": 12033, "\u0935": 29862, "\u2581behaviour": 14006, "\u2581reasonable": 11301, "\u2581??": 19563, "\u2581immediately": 5347, "Current": 6086, "\u2581engines": 17048, "ilton": 9398, "nd": 292, "getAttribute": 20296, "leen": 26943, "\u2581adopted": 13424, "CC": 4020, "elin": 26310, "ijuana": 23310, "Bot": 25288, "\u2581prevention": 27539, "\u2581Bundes": 15678, "\u2581awkward": 17450, "\u2581August": 3628, "\u2581alliance": 26162, "\u2581AI": 16107, "RED": 12466, "\u0436\u0434\u0443": 13273, "Mesh": 14952, "\u043a\u0438\u0439": 6442, "\u67e5": 29110, "\u2581noviembre": 26634, "\u2581lecture": 23347, "Scale": 10398, "ptic": 19742, "\u2581Luck": 22781, "\u0161t": 14131, "secure": 20684, "\u2581Jahre": 12552, "left": 1828, "\u2581overse": 20319, "small": 9310, "owski": 16987, "\u2581Event": 6653, "URL": 5343, "\u2581invisible": 20187, "amd": 27874, "\u2581inequ": 16431, "usb": 13990, "nbsp": 14089, "plicate": 13112, "\u2581resist": 14905, ">';": 17021, "\u2581\u043a\u043e\u043b\u043e": 28242, "\u65e2": 31643, "\u2581Ky": 15595, "should": 6716, "\u2581nodded": 7313, "\u2581determination": 20051, "\u2581honestly": 13975, "inals": 15658, "ino": 2164, "\u2581Islam": 10251, "posal": 27244, "extract": 21685, "\u2581\u0438\u0433\u0440\u0430": 20644, "\u2581alternative": 9285, "\u3061": 30173, "\u2581weitere": 24908, "\u6ee1": 30493, "\u2581mature": 19798, "\u2581FIXME": 26842, "pat": 3612, "\u00e1j": 25187, "COMM": 13454, "\u2581nun": 17043, "\u2581focus": 3232, "\u2581\u00c9t": 14011, "Our": 15265, "Player": 7699, "\u2581Jimmy": 15908, "\u2581tal": 5741, "\u2581\u0444\u043e\u043d": 19968, "\u2581Moscow": 17293, "Attribute": 3643, "\u2581hopes": 15721, "CHANGE": 27005, "\u2581Bright": 22311, "icios": 27141, "\u2581firms": 18253, "op": 410, "\u2581octobre": 19171, "\u2581\u0438\u043c": 14122, "\u2581data": 1178, "mel": 12625, "\u2581olymp": 27356, "\u0431\u0443": 5512, "\u2581separ": 3939, "\u0439": 28819, "ulture": 7985, "zens": 18218, "\u2581}).": 24371, "\u2581fast": 4102, "\u0635": 29308, "\uc2dd": 30355, "\u2581retrieve": 20132, "ikt": 14579, "TT": 16235, "\u2581\u0440\u0430\u0437\u0432\u0438": 23987, "\u2581anderen": 19532, "\u2581gray": 11870, "\u2581expert": 7583, "\u2581dogs": 9540, "Sch": 9979, "\u2581bland": 23494, "\u2581\u043c\u0435\u0442": 25276, "\u0cb2": 31648, "Product": 7840, "\u2581PhD": 25167, "panic": 19771, "\u2581responding": 26167, "\u2581temp": 7222, "\u2581Length": 22856, "dating": 19196, "ert": 930, "\u2581Economic": 20451, "vent": 1071, "initialize": 19106, "aut": 1228, "\u2581restriction": 21724, "\u2581doctrine": 26846, "\u2581pier": 10833, "innerHTML": 22974, "Exp": 8003, "facebook": 23744, "INS": 12522, "\u2581restaurants": 14666, "\u2581Salv": 17857, "localhost": 20816, "\u2581Results": 17412, ",\u201d": 3372, "\u53c9": 31304, "\u2581Madrid": 14334, "GF": 24390, "PLY": 26126, "\u2581favorites": 28651, "\u2581Om": 17852, "\u2581Muslim": 11258, "diff": 11836, "\u2581Por": 12401, "\u2581accidents": 26892, "\u2581\u0441\u0430\u043c\u043e": 12510, "seq": 8930, "very": 646, "\u2581Eisen": 20924, "\u2581tid": 12158, "\u2581sixt": 17930, "Soft": 19658, "\u2581ski": 21916, "\u2581staring": 13144, "\u6703": 30332, "\u2581intr": 7677, "\u2581tech": 14130, "\u2581\u041a\u043e\u043d": 16954, "\u2581invasion": 18793, "\u2581harvest": 20040, "mor": 21621, "<0x4A>": 77, "\u4ed8": 29628, "\u2581frustration": 22802, "\u6ee4": 30489, "\u2581ours": 22911, "\u2581value": 1192, "\u2581Att": 5288, "\u59d3": 30747, "\u2581inaugur": 28409, "\u2581ca": 7913, "Two": 13849, "de": 450, "\u2581Chair": 15487, "\u5740": 29468, "\u2581boots": 15674, "urable": 17499, "\u2581Starting": 25503, "r\u00e1": 12210, "plete": 6141, "\u2581wiped": 23410, "Primary": 17766, "\u0441\u043a\u0435": 17486, "\u2581teens": 27995, "\u044c\u044f": 23224, "\u2581scr": 7375, "Da": 27672, "\u2581Jew": 5808, "\u2581highlighted": 27666, "\\-": 27682, "gre": 13052, "ancouver": 22000, "\u2581Slov": 27347, "arily": 5164, "\u2581Sim": 3563, "luss": 25500, "\u2581co": 1001, "Flag": 10787, "\u2212": 28923, "\u2581homem": 28431, "<s>": 1, "Resources": 13257, "\u043c\u0438\u043d\u0438\u0441\u0442\u0440\u0430\u0442\u0438\u0432": 26332, "\u2581LL": 16704, "HH": 23834, "\u2581economy": 8725, "\u2581Data": 5284, "\u2019": 28809, "preventDefault": 24744, "\u2581bat": 9753, "\u2581sau": 10241, "\u2581quien": 20207, "html": 3391, "cember": 4354, "\u2581\u0434\u043e\u043b": 17483, "\u2581Nin": 24845, "\u2581river": 7782, "\u2581Hawaii": 26434, "\u682a": 31724, ")**": 10095, "\u2581Produ": 8730, "\u2581supplied": 16584, "oser": 20738, "getId": 15725, "\u2581chip": 15118, "\u2581\u041d\u0430\u0441\u0435\u043b\u0435\u043d\u043d\u044f": 25975, "kl": 4784, "\u2581exam": 4174, "println": 7561, "\u2581\u0436\u0435\u043d": 21741, "rix": 2908, "\u2581resistance": 12568, "\u2581retr": 17895, "\u2581desk": 9431, "\u2581Exception": 7011, "\u2581purchases": 25596, "\u2581Moore": 16616, "uded": 7961, "\u2581pe": 757, "\u2581Fig": 4826, "counter": 12520, "prob": 22083, "\u0447\u043d\u043e": 7869, "typename": 27318, "\u2581Integer": 10618, "\u2581planet": 9873, "clusive": 21981, "rov": 11620, "\u2581Feel": 27540, "\u2581We": 816, "\u2581risks": 14679, "\u2581Erst": 28227, "hou": 11331, "itol": 24250, "\u2581portable": 26337, "\u2581Kin": 26137, "ialog": 3723, "\u2581outline": 22327, "\u0441\u0442\u0430\u043d\u043e\u0432": 16362, "EV": 7321, "f\u00e9": 24606, "sterreich": 17844, "\u2581Pointer": 28597, "\u0e0b": 31049, "\u2581robot": 18401, "Volume": 12936, "\u2581dess": 9625, "`,": 6851, "\u2581apple": 19767, "appro": 9035, "<0xBF>": 194, "\u2581DM": 19884, "bler": 22413, "\u534f": 30781, "outine": 22458, "pping": 7319, "\u2581cl": 533, "\u2581Cleveland": 21920, "\u0442\u0430\u043b\u044c": 16301, "Reply": 23805, "\u2581questions": 4224, "\u2581zones": 19913, "\u2581Object": 4625, "\u2581ann\u00e9es": 16010, "vec": 2704, "cola": 26871, "\u2581acceler": 13057, "gov": 13933, "\u843d": 30874, "\u2581Singles": 24922, "\u0426": 28928, "before": 12098, "\u0394": 29475, "Locked": 28554, "\u2581ende": 22834, "Redirect": 25633, "\u2581dramatically": 25797, "want": 25265, "\u00edas": 12697, "\u2581star": 4580, "\u2581Pa": 8144, "\u00f3j": 25830, "\u2581Recent": 27727, "\u2581Kurt": 24348, "\u2581Brun": 20091, "zek": 16178, "PF": 12390, "\u2581gek": 26062, "\u2581catch": 3547, "izont": 8927, "<0xDA>": 221, "\u2581Labour": 16873, "\u2581\u044f\u043d\u0432\u0430": 22697, "Photo": 25379, "\u2581Farm": 15420, "\u2581fres": 28582, "\u03ce": 29803, "acyj": 24063, "\u2581nineteenth": 24078, "\u2581asking": 7201, "\u5948": 31869, "Callback": 6310, "\u70ed": 30898, "egr\u00fcnd": 25906, "ucker": 20380, "\u2581handy": 26568, "\u2581achieve": 6619, "\u2581Among": 13927, "appendChild": 22897, "eni": 17914, "\u2581elem": 10550, "<0x2E>": 49, "Lim": 24241, "\u2581drap": 26093, "anza": 14083, "\u00ad": 28927, "\u610f": 29462, "Matcher": 28466, "\u6e21": 31512, "\u2581Vict": 6968, "\u2581St": 662, "\u2581investigation": 11597, "\u2581classroom": 19729, "Tok": 14563, "\u2581dimensions": 13631, "\u2581organ": 2170, "\u2581hero": 10725, "\u2581pressed": 12263, "}>": 8699, "\u2581dise": 6091, "\u2581bez": 18037, "uli": 11815, "fb": 10967, "\u2581ASSERT": 9196, "fol": 5880, "\u2581weight": 4336, "\u2581waited": 10547, "anc": 834, "\u2581Did": 7164, "\u2581light": 2061, "\u2581trying": 2942, "\u2581Service": 5836, "afi": 27312, "\u0292": 30299, "\u2581durante": 9794, "iolet": 20346, "pace": 2644, "\u0445\u043e": 2593, "message": 1324, "Contract": 16742, "\u043f\u0443\u0431\u043b\u0438": 17188, "\u2581Item": 12795, "\u2581cup": 6211, "unique": 10561, "<0xF9>": 252, "(/": 16552, "\u2581moving": 5272, "\ubaa9": 30222, "zza": 16802, "\u2581missions": 23225, "\u2581sale": 7796, "deep": 17398, "\u2581cred": 3993, "find": 3326, "\u2581politicians": 18594, "\u2581\u043d\u0438\u0445": 25071, "\u00f3t": 22912, "\u2581Rest": 9576, "\u5bfa": 30799, "Pen": 26950, "\u2581Sach": 23447, "\u2581Sur": 6021, "\u2581intens": 16698, "\u2581ry": 24780, "\u2581disgust": 21536, "pret": 5520, "onie": 21223, "\u2581zusammen": 20467, "Open": 6493, "isan": 18164, "den": 1620, "\u7b54": 30620, "abl": 13747, "\u2581patrol": 22294, "oder": 5722, "\u2581Utah": 23672, "\u2581Mov": 26544, "\u0101": 28930, "\u2581&#": 16719, "\ub123": 31550, "Scheme": 23171, "\u2581{};": 10451, "\"+": 13578, "\u4e8c": 29482, "\u2581Score": 18528, "\u2581cond": 2076, ":%.*]]": 27456, "say": 21205, "\u2581od": 4321, "\u2581{\r": 1969, "Tracker": 21682, "\u2581Norweg": 25067, "\u2581compan": 4021, "\u2581gas": 5135, "\u2581Marshal": 27602, "aille": 14286, "\u0432\u0430\u0442\u0438": 16234, "olution": 2100, "\u0f60": 31989, "\u2581Earth": 8599, "\u2581fold": 10068, "\u8f83": 30459, "dbc": 24369, "ening": 3250, "\u2581database": 7499, "wed": 13274, "\u057d": 30506, "perties": 2931, "frame": 3413, "\u2581LI": 12149, "\u5bc4": 31777, "EQ": 5692, "\u9332": 30872, "usr": 16785, "(\r": 17334, "Stud": 18262, "\u2581Nathan": 20514, "me": 1127, "\u2581tun": 15013, "<0x54>": 87, "itime": 26843, "},": 881, "\u2033": 28959, "username": 10671, "\u2581Ass": 3348, "priv": 6214, "marker": 19169, "\u2581allies": 23180, "\u2581wides": 22964, "\u2581gegr\u00fcnd": 28222, "th": 362, "ions": 594, "Front": 20802, "\u2581separation": 18838, "\ubcf4": 29477, "\u5f85": 29876, "aded": 8744, "\u2581advise": 25937, "\u2581vess": 13174, "\u2581Barcel": 15371, "TON": 17517, "\u0091": 29792, "\u2581Vern": 26801, "\u013d": 30833, "\u2581Kenya": 28455, "\u2581Running": 28588, "Tooltip": 25389, "ounced": 14271, "\u2581\u0441\u0438\u0441\u0442\u0435": 21609, "Lean": 25713, "\u1ea3": 29508, "ocket": 3955, "saved": 21428, "\u2581\u0430\u043a\u0442\u0438\u0432": 24735, "online": 20154, "\u2581loaded": 10773, "ieg": 11703, "\u2581cell": 3601, "\u2581\u043c\u0435\u0436\u0434\u0443": 16360, "\u2581prot": 18696, "KERN": 14522, "\u057a": 31881, "\u2581Christmas": 7416, "Relative": 26423, "\u2581trash": 17466, "\u952e": 29728, "\u2581\u0410\u0440": 13462, "\u2581neck": 7215, "ogeneous": 23239, "n\u00edm": 21038, "\u2581\u041d\u0435": 12112, "arante": 7203, "\u2581players": 5117, "roit": 15055, "\u2581Effect": 16782, "olia": 22925, "components": 9048, "\u2581nut": 9246, "\uc5c8": 30591, "\u98df": 30716, "erset": 27236, "change": 4078, "\u2581increase": 5247, "\u2581amongst": 18640, "param": 1148, "\u2581ranges": 19441, "\u2581selfish": 26206, "Partial": 25049, "uno": 12581, "\u2581accidentally": 27630, "\u2581movie": 5994, "lon": 15161, "So": 5142, "onen": 25893, "partial": 4364, "\u2581jel": 21776, "\u2581brushed": 28427, "\u2581EN": 11929, "\u2581req": 7275, "\ud574": 29426, "\u8f66": 30062, "\u2581versions": 11031, "BP": 9399, "\u2581\u043c\u0430\u0440\u0442\u0430": 24898, "\u2581auch": 5370, "\u2581shrugged": 15264, "\u2581favour": 10392, "\u2581differently": 16841, "returns": 7617, "atem": 24359, "alt": 2304, "\u2581Fel": 11659, "isset": 11582, "\u2581assass": 16645, "\u2581very": 1215, "\uc131": 29465, "\u2581Large": 23292, "\u0442\u0430\u0445": 27747, "\u2581Function": 11347, "lane": 25124, "\u2581productivity": 24504, "\u8f74": 30788, "\u2581GA": 24083, "enders": 14930, "\u2581Six": 13934, "\u2581Save": 15226, "LEFT": 20528, "\u2581out": 575, "\u2581=>": 953, "FT": 5550, "endo": 4722, "\u2581spont": 24404, "Dit": 15324, "esen": 23668, "<0xD5>": 216, "upload": 12657, "\u2581Lord": 6208, "\u0219i": 6284, "mad": 13179, "annt": 13104, "\u2581driv": 4980, "\u2581designated": 20444, "archive": 23682, "ansk": 18269, "\u2581heroes": 23959, "\u2581Cry": 20254, "\u2581${\\": 5493, "\u2581REG": 13923, "\u984c": 31054, "\u9669": 31413, "\u2581\u043f\u0440\u043e\u0442\u0438": 25373, "LECT": 8785, "\u2581pale": 12805, "\u043c": 28803, "rename": 22778, "\u2581Beautiful": 26547, "\u2581tune": 21337, "depend": 11569, "\u2581Mus": 3779, "\u2581zum": 6103, "\u2581chi": 20484, "\u2581Virtual": 19032, "\u2581\u043d\u0430\u0441\u0435\u043b\u0435\u043d\u043d\u044f": 22807, "\u2581topic": 9067, "totype": 5428, "\u2581readers": 12076, "\u2581calculated": 13507, "\u2581Miss": 5586, "Div": 12739, "\u2593": 31024, "lem": 2933, "=%": 9017, "\u2581battles": 20469, "\uff09": 29185, "\u2581GPS": 27571, "vel": 959, "\u2581lawyers": 19731, "\u5bf6": 31683, ">()": 21384, "app": 763, "\u2581\u0431\u0440\u0438": 23145, "\");": 1041, "\u2581senses": 23086, "tegr": 8489, "Utility": 26481, "\u043a": 28795, "\u2581gran": 8494, "?>": 15353, "cout": 16429, "business": 25443, "\u2581Toronto": 14984, "\u2581\u00e0": 1289, "\u2581requ": 1085, "\u2581applic": 4598, "\u0010": 30388, "\u2581optical": 19028, "linked": 27465, "iros": 26788, "endment": 18920, "background": 11563, "\u2581Id": 6318, "\u2581Dod": 22790, "\u2581dok": 17941, "\u2581\u2581\u2581\u2581\u2581\u2581\u2581\u2581": 273, "\u65e0": 29375, "esta": 9221, "\ud0a4": 30649, "Tra": 14839, "invoke": 21658, "\u043f\u043e\u043b": 14004, "\u2581fet": 16685, "\u2581cho": 2183, "\u2581survivors": 25741, "vd": 17249, "\u2581Ch": 689, "\u2581monitor": 9009, "target": 3731, "imat": 24022, "bbing": 28259, "named": 18561, "\u8651": 31650, "\u2581translate": 17824, "iert": 6257, "\u2581variety": 6677, "\u2581clone": 17993, "\u00e9": 28797, "undo": 8569, "\u2581Jo": 6081, "\u0446\u0456\u0457": 11071, "\u2581suc": 9094, "\u2581Hey": 17162, "\u2581Hor": 8221, "\u2581thread": 5427, "\u2581dont": 7286, "\u2581dign": 18485, "\u2581Description": 10220, "\u2581gras": 26517, "iv": 449, "\u2581\u0442\u043e\u043b\u044c\u043a\u043e": 24125, "\u2581capac": 17025, "\uc9c1": 30892, "\u2581deaths": 16242, "Gener": 3602, "/)": 19840, "\u7d50": 30486, "\u2581molto": 25680, "istrict": 7486, "\u2581byla": 23070, "\u2581f\u00fcn": 24070, "inary": 3239, "variant": 9974, "\u2581railway": 18051, "ceived": 9110, "\u4ecd": 31971, "\u2581Fi": 24061, "\u043b\u0456\u0432": 23279, "\u30e7": 29964, "\u2581science": 6691, "older": 3702, "\u78bc": 30946, "\u2581vital": 12588, "\u2581painting": 11514, "\u2581av": 1182, "<0x28>": 43, "\u2581neighbor": 7422, "outes": 14906, "\u2581reading": 4865, "\u2581chemicals": 24920, "\u2581practice": 5245, "\u2581lanz": 26682, "\ub77c": 29700, "<0x4F>": 82, "\u2581Iter": 20436, "\ub610": 31292, "\u2581houses": 9626, "\u2581kwargs": 23197, "\u622a": 30572, "Cfg": 27096, "\u2581researchers": 15334, "ueva": 22400, "\u00e1ndez": 28537, "\u2581estim": 6010, "\u2581unt": 1883, "\u2581Oktober": 17721, "\u2581S\u00e9": 28387, "\u2581point": 1305, "\u2018": 28894, "gd": 26211, "\u2581jokes": 23872, "\u2581Financial": 17146, "\u2581Peg": 26806, "]])": 28424, "\u2581blink": 16759, "\u2581contain": 7001, "\u2581latest": 7345, "\u2581private": 1597, "\u5b8f": 31934, "Report": 10493, "\u2581/>": 4884, "oso": 13880, "sum": 1801, "\u2581self": 1008, "\u2581string": 1423, "\u2581Chat": 23781, "<0xA8>": 171, "\u2581teen": 10799, "\u2581that": 369, "\u2581rott": 28156, "no": 1510, "ILITY": 8101, "\u2581damage": 6544, "\u0431\u043e\u043c": 26367, "ridge": 9163, "lo": 731, "oks": 25808, "\u2581decode": 21503, "\u044a\u0440": 6430, "onymous": 12928, "\u00f6rd": 12462, "\u2581against": 1835, "TS": 7996, "quarters": 14446, "weights": 26911, "\u2581crying": 15671, "\u045b\u0435": 25464, "ading": 7836, "\u2581wrap": 12551, "erialize": 12145, "\u2581magazines": 22916, "\u2026": 28878, "\u2581anyone": 3637, "\u2581managers": 17490, "\u0c95": 31468, "\u2581\u044f\u0437\u044b": 23980, "\u2581coord": 6618, "\u2581\u0433\u0440\u0443": 9891, "Argument": 8949, "opsis": 22761, "\u2581fam": 1282, "gy": 1495, "\u2581Working": 18847, "anska": 26936, "\u043b\u043e\u0436\u0435\u043d": 27137, "\u00e8de": 24272, "(__": 7697, "\u2581guaranteed": 17813, "\u2581puts": 12345, "\u2581Create": 5670, "\u2581stick": 6906, "osti": 22160, "\u2581manera": 23456, "boolean": 8490, "iences": 12923, "Service": 2328, "\u2581less": 2108, "ComponentModel": 24306, "\uc0b0": 30336, "<0xE2>": 229, "\u2581TIME": 25720, "\u0bb2": 30616, "\u0442\u043e\u0432": 7660, "\u2581(!": 1661, "\u2581six": 3522, "\u2581Advent": 19772, "\u043a\u043b\u043e": 24034, "\u2581unlock": 15430, "Om": 5943, "\u2581greeted": 27473, "\u2581lung": 14966, "atie": 11541, "\u2581on": 356, "join": 5906, "\u0441\u0442\u0440\u043e": 9571, "Even": 20520, "absolute": 26022, "\u2581sind": 6822, "\u2581Copy": 18158, "\u2581churches": 20764, "\u2581numerous": 9696, "olt": 8947, "\u2581Bath": 18512, "n\u00e9": 8269, "HO": 4104, "\u2581creative": 9811, "Cam": 11658, "\u2581()": 3060, "Bill": 18069, "\u2581Member": 15178, "\u2581noise": 8498, "\u521d": 29409, "<0x91>": 148, "\u2581Susan": 17569, "\u2581apart": 7413, "\u2581happily": 24693, "\u2581stere": 19541, "\u2581anc": 5930, "\u2581practition": 24989, "\u2581pill": 10837, "\u2581tuple": 21000, "\u2581themes": 18978, "size": 1428, "\u2581orders": 8636, "\u2581tales": 22242, "\u2581numero": 25899, "\u2581sucked": 28436, "ensive": 4097, "\u2581fos": 22876, "\u2581expressed": 11558, "\u2581poker": 25346, ")\\": 2681, "\uf0d8": 31261, "\u2581pine": 23683, "iction": 3033, "\u6d4f": 30796, "\u0435": 28773, "\u2581spel": 28501, "Build": 9458, "\"?": 27257, "\u2581let": 1346, "\u0421\u0420": 12402, "\u0435\u043c": 5210, "\u2581unter": 7014, "return": 807, "\u2581blog": 6073, "erre": 12130, "arto": 25969, "chrome": 21001, "\u2581conversation": 7114, "ico": 2224, "\u2581things": 1722, "?'": 3725, "\u2581circul": 15092, "\u2581Angel": 15878, "frastructure": 11932, "}_": 2427, "wards": 2686, "rought": 3928, "fy": 26253, "\u2581Frau": 27993, "rah": 21174, "curs": 14185, "en": 269, "\u1ed3": 30241, "\u2581\u0433\u0438": 25316, "\u00f6d": 14697, "Alignment": 18307, "\u0081": 29766, "ens": 596, "forall": 21524, "\u2581\",\"": 28685, "BUFFER": 16406, "\u2581rect": 9717, "\u2581ray": 21338, "istributed": 25625, "leg": 1946, "ched": 1572, "isz": 27031, "\u2581Contact": 12603, "\u2581twisted": 18337, "ces": 1377, "\u10e2": 30119, "\u2581Fle": 15666, "in": 262, "\u2581rc": 8921, "\u2581preval": 25371, "Listen": 17705, "getInstance": 16413, "\u00c9": 28901, "testing": 10163, "ura": 2614, "\u2581later": 2062, "\u2581logging": 15703, "\u2581origins": 26081, "<0x56>": 89, "uilder": 2866, "\u2581birthday": 12892, "\u00e1b": 25657, "DO": 5170, "\u2581\u043f\u043e\u0434\u0430": 21152, "\u2581vale": 28210, "\u2581mysql": 24976, "\u9891": 30030, "ospher": 27552, "\u2581#": 422, "\u2581Point": 8571, "\u2581narrative": 15529, "\u7f6e": 29021, "\u2581obey": 28414, "\u8fde": 29641, "icate": 5749, "ipv": 21294, "\u2581excellent": 8099, "\u2581cav": 25553, "=\"-": 23013, "lichen": 7246, "\u2581pepper": 19082, "CM": 15155, "\u2581freely": 21964, "\u2581Additional": 20460, "\u0d3e": 31784, "<0x23>": 38, "\u2581Wolf": 17227, "valid": 2398, "\u2581vez": 10053, "|\\": 5093, "\u2581Micro": 20171, "Ms": 16023, "\u2581stab": 21670, "cid": 20020, "istant": 11143, "olk": 27227, "hdr": 10499, "\u2581override": 8013, "\ubcf8": 30535, "&#": 27440, "\u2581remot": 28601, "fg": 4113, "\u2581django": 24848, "\u2581document": 3248, "\u2581downt": 15129, "\u65d7": 31612, "\u2581sd": 19515, "\u2581Wisconsin": 19047, "\uccb4": 29823, "\u2581Insp": 27401, "\u2581recognize": 11286, "Cur": 4432, "ost": 504, "\u62bd": 30885, "\u2581insurance": 6919, "\u2581language": 3842, "With": 2946, "uro": 2138, "\u2581tiem": 16365, "\u2581Real": 7960, "\u6b8a": 31267, "\u2581participated": 21510, "elson": 14814, "market": 15594, "orship": 9579, "<0xA1>": 164, "\u2581occupation": 22179, "\u2581Limited": 19637, "iefs": 25495, "<0x62>": 101, "\u2581stepping": 25719, "\u0bbf": 29983, "\u2581Optim": 27268, ")',": 20735, "\u8bcd": 30352, "\u2581orientation": 18159, "\u2581magnific": 24039, "\u2581broader": 25941, "GI": 22576, "ende": 4539, "\u2581Hughes": 26419, "\u2581lined": 21161, "ouw": 27298, "\u2581Secret": 9233, "][": 3328, "\u2581copyright": 9934, "\u2581Dean": 17378, "\u2581Coupe": 28650, "\u2581integration": 14678, "\u2581szer": 17267, "\u2581consists": 12335, "\u2581foss": 21036, "\u0e08": 29789, "\u9694": 30451, "BACK": 12437, "Mus": 16159, "\u2581LIABILITY": 22208, "\u2581part": 744, "\u2581\u0442": 3265, "setValue": 26532, "\u2581Peters": 17658, "otive": 28538, "\u2581\u2581\u2581\u2581\u2581\u2581\u2581\u2581\u2581\u2581\u2581": 17422, "\u2581waist": 17532, "\u000b": 30638, "::": 564, "\u2581Colonel": 18464, "\u2581tact": 12529, "\u2581\u043a\u043e\u0433\u0434\u0430": 28164, "else": 2013, "\u2581god": 5525, "\u2581totally": 8913, "brew": 22540, "\u2581mineral": 25837, "LI": 4862, "osz": 24982, "\u2581facility": 12671, "\u2581\u00e9galement": 13417, "\u2581distinguish": 23035, "\u0447\u0438\u043d": 23156, "Rot": 13722, "\u2581sheet": 12173, "';": 1775, "RW": 28592, "aha": 12980, "\u2581Error": 7419, "RIGHT": 14166, "\u2581fought": 12589, "\u2581jo": 5821, "\u2581refuse": 17720, "chnitt": 28644, "\u008b": 30474, "\u2581Ide": 14017, "\u2581apro": 18883, "\u8981": 29059, "\u2581declaration": 19827, "\u2581janu": 19173, "\u2581'\\": 8846, "\u53cc": 30524, "mount": 13022, "\u2581bankrupt": 25393, "\u2581path": 2439, "\u2581Z": 1054, "\u2581shr": 12249, "\u2581Aud": 14421, "\u2581Bras": 13481, "\u2581sevent": 11130, "Dependency": 25816, "\u7ec8": 30538, "\u2581objectives": 22134, "textwidth": 13592, "Det": 5155, "iej": 6250, "\u2581async": 5755, "\u2581seem": 1709, "insn": 22113, "\u2581merc": 21687, "\u7bc0": 31295, "\u2581Ki": 22485, "\u2581suffered": 12847, "\u2581nuevo": 23609, "v\u00e4": 15751, "ovember": 4208, "\u2581diet": 9751, "Template": 6937, "<0x6F>": 114, "\u2581bien": 9628, "\u2581magical": 20927, "\u2581banda": 21838, "\u2581denied": 16703, "\u2581\u043f\u0435\u0440\u0438\u043e": 20292, "\u2581Script": 15548, "\u0294": 30317, "\u2581gemeente": 28482, "\u00e8tres": 21412, "\u2581\u0434\u0432\u0435": 27807, "ossip": 24634, "ulating": 13622, "focus": 12208, "\u2581Text": 7379, "\u725b": 30857, "arator": 22813, "\u2581instinct": 16823, "\u571f": 30790, "adr": 23677, "\u0450": 31773, "\u2581\u0433\u0430": 13206, "\u9078": 30045, "\u2581supposed": 6495, "database": 14430, "\u2581smart": 7455, "\u2581cloth": 17673, "\u2581Republicans": 20094, "\u0142ad": 15241, "spot": 20269, "ierno": 20122, "\u2581Phil": 4322, "vik": 26951, "\u2581outs": 19717, "jar": 13036, "\u00f6n": 5438, "enh": 25449, "\u2581approved": 12879, "\u1021": 31995, "\u2581changing": 8634, "\u2581\u0431\u0443": 5213, "\u2581departure": 20622, "ENUM": 26697, "\u2581tire": 22251, "copy": 6541, "written": 15957, "opic": 22773, "\u2581master": 5968, "\u2581xml": 14502, "ocol": 3873, "\u2581neural": 25726, "arded": 14916, "\u00f3z": 25766, "header": 4983, "sts": 21514, "call": 2845, "ording": 3059, "\u2581rich": 6708, "ory": 695, "ana": 2238, "\u0016": 30935, "writer": 11660, "\u2581Tod": 6013, "\u751f": 29128, "crit": 12724, "Iter": 8135, "\u7269": 29535, "\u2581apt": 24932, "\u2581plt": 17768, "\u2581rid": 7194, ">%": 24801, "Future": 17147, "\u2581l\u00e0": 26941, "\u2581maintained": 15861, "minute": 17386, "uning": 25522, "\u2581Flag": 25156, "TM": 18659, "\u2581Flo": 14819, "\u2581Ont": 16443, "\u2581diagonal": 25202, "oph": 3126, "lam": 5989, "\u2581\u043a\u0440\u0430": 10075, "Star": 14765, "\ub300": 29634, "var": 1122, "gren": 27526, "\u2581bour": 25715, "\u2581invoke": 23071, "\u2581shifted": 16618, "Yeah": 12204, "************": 17328, "story": 18387, "\u0142u": 20584, "ivia": 19278, "cord": 19056, "\u2581Talk": 15849, "\u2581previous": 3454, "\u2581wounds": 24741, "\u2581encore": 16921, "<0x0E>": 17, "\u099f": 30579, "\u2581poison": 15842, "Standard": 17899, "\u2581Mundial": 23879, "\u2581estud": 17943, "\u2581ont": 7957, "ati": 3986, "<0x11>": 20, "\u2581ang": 3720, "SED": 16884, "\u2581ratings": 21381, "\u2581\u0437\u0430": 1586, "\u2581also": 835, "curity": 3860, "...,": 25272, "\u2581Rebecca": 26014, "eto": 5655, "test": 1613, "iat": 9348, "\u2581deemed": 24328, "\u2581acres": 20647, "\u2581experiment": 6878, "\u2581Anton": 8999, "\u2581ut": 3734, "\u2581GPU": 28475, "\u0a3e": 31714, "\u2581ali": 19974, "\u2581ese": 20423, "inates": 10218, "\u2581pel\u00edcula": 27618, "\u2581organisations": 24202, "\u2581surroundings": 28220, "(\"\\": 10592, "\u2581utf": 26238, "\ub514": 30399, "mbre": 7979, "cticut": 23188, "\u2581countless": 23387, "\u1e41": 31507, "\u00e9ta": 25545, "neo": 17462, "\u2581Este": 20586, "nonumber": 8747, "\u2581Staff": 13594, "_{": 787, "gor": 4553, "\u2581eu": 19932, "\u2581persu": 14861, "\u028a": 30257, "(['": 18706, "\u2581perd": 17266, "\u2581\u0412\u044b": 24311, "\u2581decide": 7964, "NO": 4032, "\u2581italiano": 18348, "\u044c\u0435": 18628, "\u2581Voice": 25815, "enu": 4265, "\u2581constants": 19648, "\u043d\u0430\u0434": 20982, "\u2581Techn": 6772, "entries": 14849, "\u2581quick": 2936, "AN": 1251, "\u2581inflation": 20613, "RP": 28543, "\u2581Esc": 13731, "\u2581Linda": 23285, "printf": 4631, "\u2581autumn": 24818, "level": 4404, "\u2581Plan": 9116, "\u2581brace": 27856, "\u2581demonstr": 6695, "\ucabd": 31117, "\u2581proport": 12687, "\u2581Ny": 20268, "Too": 25679, "\u2581tre": 2655, "\u2581gained": 14018, "cock": 25588, "\u2581jamais": 28052, "l\u00e9": 19838, "\u2581\u0436\u0435": 9438, "cho": 2415, "\u53e5": 30347, "\u2581VIII": 24475, "\u30b3": 29573, "\u2581juice": 18342, "\u2581block": 2724, "\u2581popular": 4387, "\u2581given": 2078, "','": 6078, "ilians": 24959, "LINE": 9581, "blocks": 14965, "\u2581slic": 17341, "series": 17384, "adesh": 20830, "\u2581Va": 18786, "next": 3423, "\u2581silence": 9296, "\u2581liv": 9678, "\u2581gar": 5925, "da": 1705, "\u2581ella": 19880, "\u00e2n": 18215, "\u5373": 29898, "qquad": 12088, "\u2581\u2212": 8798, "\u2581crypto": 21066, "\u2581reflect": 7967, "\u2581\u20ac": 17416, "agra": 16208, "inction": 15012, "\u2581lean": 6115, "\u2581torn": 9390, "assertTrue": 18455, "indexOf": 14414, "\u2581chance": 4676, "PARAM": 13786, "\u2581siendo": 27012, "\u2581coll": 3495, "\u2581genius": 22027, "\u2581dates": 12791, "Checked": 19154, "\u2581Celt": 28417, "\u3088": 29943, "Comment": 13617, "Transport": 20036, "pars": 16490, "\u2581kter\u00fd": 28162, "\u2581chat": 10706, "\u2581mothers": 21574, "\u88c5": 29722, "\u2581Reserved": 23182, "annot": 5886, "'][": 24948, "\"%": 28413, "\u008f": 29658, "irth": 4633, "ifornia": 5999, "\u2581Marian": 27117, "\u0434\u044c": 14599, "shift": 9114, "ISH": 26571, "\u2581Se": 1091, "\\/": 23674, "\u2581apartments": 28123, "\u2581conce": 13270, "\u2581fonction": 23473, "\u026a": 29603, "\u2581fulfill": 16427, "phase": 19525, "ins": 1126, "illes": 11619, "iste": 6508, "currency": 16714, "ret": 1441, "ishes": 8137, "/>": 2370, "\u2581makeup": 19781, "\u2581\\(": 18823, "ubern": 16940, "ichten": 20850, "elles": 8668, "\u2581conventional": 17215, "\u0964": 31151, "Operation": 6972, "\u2581frightened": 23889, "\u2581County": 5068, "izado": 25018, "\u2581severely": 28064, "\u2581unsafe": 15426, "\u2581telling": 7124, "empor": 6536, "PU": 7903, "Network": 8653, "ummy": 9440, "leq": 4688, "\u2581Det": 5158, "\u2581normal": 4123, "uther": 14425, "eny": 20552, "\u5c45": 31055, "ested": 7848, "\u2581m\u00e9t": 21065, "LAY": 14963, "\u2581Pretty": 24111, "\u2581Hud": 20247, "Extract": 24958, "ister": 1330, "\u2581inv": 1304, "hello": 21558, "\u2581ns": 9250, "care": 8001, "\u2581Liverpool": 20834, "\u0440\u0430\u0437": 24440, "\u5468": 29874, "onel": 12006, "\u2581construct": 5122, "\u2581routine": 11935, "\u2581G": 420, "\u2581whole": 2894, "\u2581residence": 18016, "\u0440\u044f\u0434": 18554, "Primitive": 24549, "\u2581Private": 14363, "\u2581aston": 21011, "\uc2b5": 29570, "\u2581[{": 21156, "\u2581\u0454": 15020, "\u2581HTTP": 13844, "\u2581Greg": 10920, "\u2581Eli": 17177, "\u2581Keith": 22759, "BASE": 11886, "\u2581actual": 4695, "\u2581Ec": 26195, "\u2581SET": 17638, "\u2581Lev": 10249, "\u2581Delete": 15263, "ponents": 6445, "multicol": 18223, "\u1e43": 30454, "\u2581layers": 13083, "\u2581thank": 6979, "\u2581Sara": 23365, "irement": 11011, "\u2581settings": 6472, "\u2581arts": 13480, "\u2581mach": 8505, "Factory": 4990, "addy": 13774, "\u2581rendering": 24921, "\u2581texture": 14024, "<0xAB>": 174, "\u2581rest": 1846, "\u1015": 31452, "\u2581*,": 17505, "\u2581denote": 14543, "\u2581intended": 8926, "\u2581ey": 1746, "arius": 23989, "film": 16116, "Threshold": 26436, "\u2581shaped": 21028, "\u2581endpoint": 15329, "\u2581Poly": 21493, "\u9322": 31266, "\u2581consumer": 12077, "\u51b3": 30668, "box": 2858, "pl": 452, "\u2581virtually": 17626, "\u0441\u043b\u0438": 16799, "\u2581mixed": 9430, "independ": 26982, "\u7f29": 30250, "ropol": 13339, "iliation": 22758, "\u0445\u043e\u0432": 19360, "\u9805": 30829, "\u2581Bur": 6815, "\u2581qualify": 23549, "\u2581digging": 27645, "sp": 886, "Ptr": 5094, "low": 9381, "\u2581feedback": 12139, "\ud305": 31589, "CLE": 21521, "ental": 7540, "\u2581commer": 6002, "\u2581guerre": 20301, "ute": 1723, "Since": 24091, "\u2581tarde": 24562, "\u2581protect": 5321, "\u10da": 29617, "\u2581Colin": 25380, "EXT": 4036, "\u2581students": 3567, "\u2581contact": 3754, "\u043c\u0443": 2953, "SCAN": 27849, "\u2581cos\u00ec": 26052, "tokens": 20228, "\u2581Giov": 18605, "held": 20354, "\u2581Pir": 19346, "iac": 14480, "un\u00e4chst": 24490, "\u2581personal": 3327, "\u62fc": 31214, "\u2581appar": 19744, "ena": 3594, "icode": 15535, "\u2581than": 821, "\u2581lips": 8852, "2": 28750, "\u2581providing": 7501, "_,": 6930, "ering": 2131, "\u2581bump": 26563, "thon": 7418, "ult": 517, "AK": 13715, "\u0540": 31638, "ENTIAL": 26567, "dater": 28615, "\u2581Management": 9466, "\u2581companions": 24804, "ampion": 8042, "\u2581containers": 25399, "IENT": 18009, "\u09b6": 31275, "\u2581\u043a\u043e\u043c": 8540, "\u05e2": 29295, "etes": 10072, "\u2581Franklin": 15181, "\u9c7c": 31681, "\u2581city": 2990, "\u2581stocks": 21781, "\u2581honour": 23104, "avelength": 26795, "memcpy": 19290, "\u2581Manager": 13111, "\u2581{}": 4729, "$_": 11914, "Repo": 26280, "\u2581Test": 3735, "\u2581cy": 4685, "\u66b4": 31492, "irection": 7819, "AV": 9024, "\u9054": 31246, "Bl": 4919, "\u2581Modern": 13950, "NODE": 15214, "\u2581:)": 15108, "\u2581Natur": 21749, "\u2581bothered": 25277, "\u2581important": 2278, "\u2581Department": 6946, "\u2581waters": 15507, "\u1000": 31158, "enum": 10057, "ROW": 19989, "\ud83d\ude2d": 29985, "\u043a\u043e\u0433\u043e": 13961, "\u2581denoted": 28176, "\u2581districts": 23857, "position": 3640, "\u2581criteria": 15117, "\u2581Brit": 3262, "appropri": 25381, "\u2581pushed": 9012, "lesh": 12953, "achusetts": 15591, "ital": 1803, "Seg": 11560, "TREE": 26522, "uvud": 17279, "ADD": 10868, "\u2581free": 1933, "Mart": 21787, "\u2581supporters": 18909, "olan": 24126, "\u05da": 30245, "\u2581Background": 24316, "\u2581minimum": 7968, "\u2581breat": 13105, "\u045a\u0438": 24860, "Props": 7314, "ym": 1082, "\u258c": 30073, "\u2581stations": 14474, "\u8bbf": 30164, "cep": 18316, "\u724c": 30324, "CHANNEL": 23299, "DataSource": 23422, "\u2581ax": 6056, "\u2581lug": 9506, "cam": 9125, "hentication": 9767, "occ": 21450, "\u2581Juni": 17099, "\u2581ones": 4413, "\u2581Communications": 26141, "\u0458\u0438": 11262, "\u2581desperate": 17353, "\u2581extensive": 13571, "iginal": 11608, "\u2581nervous": 13665, "\u2581Prix": 17926, "made": 15248, "Enable": 13202, "\u2581\u044d\u0442\u043e\u043c": 26512, "vano": 27000, "notation": 11627, "\u2581\u043d\u0430\u043b\u0430\u0437\u0438": 27108, "riere": 24925, "\u2581confidential": 28451, "\u2581who": 693, "\u2581Total": 10711, "\u10de": 31053, "\u2581Josef": 27622, "Express": 24637, "dal": 20576, "\u2581muscle": 14540, "\u2581variance": 27493, "\u2581Tibet": 28288, "\u2581oil": 5503, "\u0152": 29504, "\ud130": 29665, "predict": 23077, "ria": 3931, "\u5747": 30637, "\u043c\u0438\u043d\u0438": 17804, "\u2581Bei": 17457, "\u2581Squadron": 27081, "\u2581conver": 9105, "\u2581unused": 25105, "\u2581Lemma": 13584, "\u2581travers": 19483, "\u00fablic": 11850, "ricane": 25253, "otype": 21475, "\u8a0a": 30844, "\u6843": 31750, "\u2581basement": 21466, "\u2581renov": 19103, "\u2581instantly": 16203, "\u2581}{": 26528, "\u2581n\u00e1": 23407, "\u2581stub": 14601, "\u2581he": 400, "En": 1608, "scrib": 23418, "}&": 22601, "omb": 3865, "ngth": 24575, "\u2581New": 1450, "\u5e97": 30219, "\u2581gardens": 22461, "Clone": 18991, "\u2581prototype": 25192, "\u2581uno": 10956, "\u2581above": 2747, "\u2581played": 4226, "\u2581thrown": 12046, "}^{-": 17592, "\u2581ME": 13835, "\u2581come": 1567, "n\u00ed": 3771, "\u2581observer": 21854, "\u2581alleged": 22362, "\u2581locate": 22920, "attachment": 28150, "okal": 23356, "alg": 12394, "\u2581experiencing": 20998, "\u0432\u0441\u044f": 17425, "\u2581vessels": 22831, "ative": 1197, "\u2581\u010d": 6612, "\u2581Bab": 15726, "Separator": 28143, "iece": 21422, "wh": 1456, "\u2581discount": 12711, "\u30c7": 29644, "\u1e28": 31949, "\u2581compliance": 9044, "\u0442\u0438\u043d": 14981, "tok": 11178, "\u2581demol": 25598, "\u2581Summary": 23276, "AspNet": 13205, "Delegate": 17295, "serv": 1472, "\u2581fe": 701, "\u001d": 31236, "<0xB7>": 186, "\u904e": 30699, "hot": 10672, "\u2581Pred": 19122, "\u2581cheaper": 20326, "\u10e3": 29951, "\u0436\u0434\u0430": 12979, "\u045a\u0435": 11970, "\u2581landscape": 13894, "\u0451\u043c": 18452, "\u2581betray": 26580, "erd": 5517, "\u2581ingred": 10887, "\u2581writing": 3653, "\ud83d\udfe2": 30832, "\u2581skill": 10346, "\u2581XVII": 28183, "pressed": 12041, "\u2581''": 9842, "\u2581paper": 3830, "edit": 7128, "\u2581(\u2020": 19143, "\u2581Campbell": 20760, "allet": 7354, "\u2581wins": 15236, "\u2581weapon": 11380, "\u2581ASS": 8602, "\u2581Digital": 13770, "UMN": 24495, "elasticsearch": 28350, "\u2581jacket": 15554, "\u6062": 30999, "\u2581m\u00e1s": 5268, "\u2581experimental": 14593, "anje": 27858, "\u2581bast": 15776, "ury": 2272, "\u2581struggled": 19274, "\u2581extent": 11125, "\u9192": 31224, "\u2581configure": 20919, "\u2581Kan": 14748, "\u2013": 28816, "math": 928, "\u2581gegen": 12039, "\u201a": 29290, "usa": 15477, "fileName": 25695, "\u2581associ": 3509, "\u2581union": 10784, "\ud5a5": 31460, "\u2581redistribute": 15963, "\u2581Harris": 16692, "\u2581sich": 3866, "\u2581Saturday": 8513, "\u2122": 29014, "\u6751": 30071, "uch": 903, "\u2581\"<": 6647, "\u2581advertis": 21662, "\u00e8te": 21056, "\u2581\u00e4ven": 28065, "\u2581elbow": 26433, "\u2581gather": 6759, "terday": 10479, "\u2581Looks": 27684, "cription": 2342, "field": 2222, "\u5df4": 30824, "ad\u00e9m": 27382, "nej": 10719, "\u2581convention": 18698, "\u2581Cho": 25405, "\u2581visibility": 23446, "dire": 23887, "\u2581trend": 9156, "\u2581nu": 6561, "\u4e00": 28969, "\u2581dece": 23009, "()->": 4330, "\u2581{\"": 9830, "')": 1481, "peated": 27367, "\u2581synt": 13606, "\u012f": 30722, "'''": 25135, "Second": 10385, "\u2581oppon": 13328, "orsz": 21585, "\u2581engineer": 18112, "\u2581Fuck": 19449, "\u00edt": 4071, "\u2581smelled": 27594, "lished": 2926, "eries": 12865, "\u2581challenging": 14361, "\u2581Linux": 19486, "F": 28765, "i\u0105": 18424, "\u2581\u0446\u0435\u0440": 21276, "\u2581Way": 9168, "convert": 13241, "\u0446\u0456\u043e\u043d\u0430\u043b\u044c": 27851, "\u2581bzw": 26520, "\u2581honom": 28657, "ofs": 24103, "umin": 9867, "wei": 25257, "esome": 9263, "\u2581plant": 5100, "anj": 18621, "\u2581recurs": 19681, "\u2581hood": 21224, "\u2581Execut": 11663, "\u2581guy": 4649, "\u2581Throughout": 23501, "\u2581Reed": 26244, "\u2581rule": 5918, "\u2581Herm": 14741, "\u7981": 30415, "\u2581PropTypes": 28602, ")}{": 14442, "atype": 25743, "\u2581fr\u00fc": 27197, "\u2581f\u00e5": 28680, "za": 2166, "\u2581derive": 24058, "ien": 1375, "\u2581Edu": 22726, "esser": 25711, "\u2581intelligent": 18926, "\u2581ms": 14362, "\u2581Ce": 12494, "\u2581kilom": 22230, "\u2581tor": 5063, "lie": 5715, "\u2581Richmond": 26182, "\u2581automatically": 10226, "VED": 27198, "\u2581discrim": 14256, "\u2581nom": 3334, "\u2581mis": 4052, "\u770b": 29466, "\u2581reck": 20088, "\u2581College": 6136, "\u2581Roll": 12326, "bau": 16855, "wl": 13982, "Fe": 5980, "\u2581gotten": 10930, "LOC": 9668, "\u2581(**": 20714, "\u2581seasons": 15238, "\u2581Prof": 6235, "\u2581deserves": 24985, "inner": 3739, "\u2581Cant": 21216, "\u2581deserved": 27725, "\u2581Otto": 21289, "Forward": 21971, "\u2581\u0415\u0432\u0440\u043e": 23300, "processing": 26188, "los": 17314, "\u0447\u0435\u0441\u043a\u043e\u0433\u043e": 21697, "\u2581\u0434\u0432\u0430": 17489, "\u2581==": 859, "est": 374, "Pars": 26412, "\u2581SH": 8604, "\u2581relativ": 22957, "refer": 16769, "FMT": 28571, "nut": 17964, "con": 514, "\u2581racism": 22409, "\u2581sky": 7212, "\u2581Bert": 20215, "\u2581transitions": 26823, "'}": 14491, "\u2581\\|": 14688, "\u706b": 30479, "\u2581chem": 7462, "\u2581lux": 11967, "Option": 5425, "\u2581Lars": 27305, "\u2581yield": 8109, "\u2581Henry": 6808, "ENO": 12726, "\u2581setting": 5587, "\u043c\u043e\u0439": 24931, "\u0f42": 31035, "ande": 5224, "\u2581flesh": 14063, "\u2581spring": 7474, "techn": 23207, "bris": 24220, "\u2581producers": 22862, "\u0441\u043b\u0435": 5333, "dbg": 14962, "\u8c61": 29254, "\u2581Glad": 28692, "\u2581s\u00e5": 12428, "\u2581_{": 9518, "olare": 19389, "\u2581opening": 7032, "\u2581um": 3205, "\u2581hold": 2400, "\u2581fisher": 27253, "\u2581Oliver": 17979, "\u2581Legend": 26499, "\u5fd8": 31763, "ec": 760, "\u2197": 29299, "wend": 23466, "\u2726": 31709, "\u0f74": 31561, "\u2581visit": 3251, "_+": 18875, "\u2581bag": 6635, "ollen": 21867, "'))": 8100, "_": 28730, "nesday": 10912, "pid": 9507, "\u00e9p": 13901, "\u2581inspect": 16279, "\u2581Clar": 20225, "\u2581max": 2666, "is": 278, "Sym": 17065, "\u2581facts": 11412, "grad": 6336, "text": 772, "Cr": 18789, "\u3078": 30667, "\u878d": 31970, "\ud83e\udd26": 30632, "\u2581curious": 13903, "\u2581//!": 19497, "ership": 4445, "olate": 19807, "\u2581oz": 24400, "uy": 4533, "\u2581American": 2556, "\u2581Simply": 26497, "pression": 2670, "\u2581Imper": 15428, "\u2581zwischen": 13217, "\u2581XI": 27948, "edo": 24436, "clear": 6206, "type": 1123, "\u2581unconscious": 21580, "icial": 5867, "\u044f\u043d": 15247, "ras": 5895, "\u2581});\r": 26392, "\u2581Nigeria": 22072, "\u2581delta": 14823, "\u2581SS": 13823, "imal": 3048, "\u2581Gay": 22460, "Args": 6686, "Be": 3574, "\u2581blend": 20521, "\u0169": 30562, "\u2581Stein": 18810, "\u2581Yan": 18421, "\u2581Click": 10213, "\u2581\"./": 11171, "\u2581aligned": 23581, "\ub354": 30519, "\u2581Africa": 7710, "\u0323": 30906, "ocation": 10001, "\u0447\u043d\u0438\u0445": 24409, "andidate": 14154, "\uc885": 30490, "\u0142aw": 17225, "habil": 23005, "Then": 11341, "\u0161t\u011b": 27832, "points": 8362, "voir": 18592, "\u985e": 30837, "\u2581Version": 7155, "Li": 27566, "\u2581Used": 17477, "\u5782": 31660, "assy": 21957, "\u2581flower": 14994, "\u2581smiled": 7970, "\u6279": 30335, "\u2581analyst": 22275, "\u2581makes": 2870, "\u2581reconc": 25349, "flix": 22401, "\u2581Mall": 20098, "\u2581fr\u00e5n": 13738, "LED": 15319, "\u2581Poss": 19796, "\u6d4b": 29584, "\u2581utilize": 22535, "Cloud": 13113, "\u62d6": 31454, "[<": 19533, "title": 3901, "\u2581bent": 16127, "\u2581rape": 21170, "\u2581target": 2718, "\u2581crime": 9311, "\u2581Freud": 24729, "\u2581Build": 8245, "\u2581css": 23489, "ieden": 20664, "\u2581effective": 5645, "\u2581sought": 13033, "arian": 9459, "equiv": 13220, "\u0456\u0441\u043b\u044f": 20607, "intel": 26876, "previous": 19740, "\u63a8": 30063, "\u0441\u043a\u0438\u0445": 7878, "\u2581ingen": 27341, "\u2581though": 2070, "\u2581daughter": 5690, "ensch": 9920, "8": 28783, "\u03c9": 29214, "Dead": 25724, "\u1ed9": 29784, "Constructor": 15940, "}\r": 2519, "\u00fablica": 18305, "\u79d8": 31544, "\u2581something": 1545, "\u2581interviewed": 28178, "\u2581thirty": 9418, "\u2581caution": 26769, "WARE": 12508, "\u2581occurred": 9894, "flu": 17262, "\u2581brush": 16284, "osed": 2352, "\u2581*)&": 27349, "\uc9f8": 31003, "\u7bc4": 31974, "\u2581Burn": 13708, "London": 20491, "\u2581inhabit": 19946, "stdout": 25080, "\u2581crash": 14456, "uario": 25335, "\u00c0": 28964, "senal": 22792, "\u2581bother": 11026, "eri": 21344, "\u2581sync": 14012, "rum": 6295, "AUT": 11489, "\u2581cert": 5813, "\u6bdb": 31187, "\u2581Europa": 15133, "\u8bc9": 31814, "\u2581Heat": 24191, "\u0629": 29141, "\u00e8me": 8158, "\u2581listop": 26460, "\u2581\u00e9l": 10760, "\u043a\u0442\u043e": 13483, "cript": 2489, "chod": 22219, "\u2581templ": 5752, "\u2581Tes": 25687, "\u2581mos": 18666, "component": 7451, "\u2581facing": 11981, "\u2581breaks": 15667, "\ud83d\ude06": 31021, "\u2581adequate": 23193, "wicklung": 25739, "<0x5D>": 96, "arios": 11041, "\u2581sout": 17465, "\u2581estad": 21760, "talk": 25995, "ans": 509, "\u2581\u0445\u043e": 10140, "\u2581more": 680, "mond": 8025, "\u2581naj": 14110, "posts": 19853, "\u2581d\u00e9f": 19907, "bread": 28090, "deleted": 8020, "\u2581electric": 7778, "\u2581acc": 932, "illas": 21917, "\u0442\u0435\u043c": 18988, "apy": 8264, "\u2581Mid": 11083, "owany": 19035, "\u7576": 31332, "\u2581bron": 14153, "\u2581Brook": 12148, "\u2581heating": 20256, "akers": 8774, "Fig": 10638, "owej": 13433, "\u2581Ross": 12124, "SC": 3315, "books": 17297, "\u2581Russian": 8098, "\u2581unknown": 9038, "]{\\": 23854, "\u2581IMPLIED": 20282, "Over": 2675, "\u2581\u0447\u0435\u043b\u043e\u0432\u0435": 15811, "\u635f": 31867, "\u2581LE": 14181, "\u2581fing": 6634, "\u2581thoroughly": 19877, "\u2581remembered": 10216, "oured": 12991, "ixon": 17572, "oubtedly": 27136, "\u2581\u0441\u0442\u043e": 11212, "\u043d\u0438\u0439": 3962, "\ubc15": 31545, "\u2581Bir": 21562, "irmed": 8945, "Identifier": 11068, "\u2581intern": 3875, "\u2581eight": 5435, "agna": 22408, "\u2581quoted": 19315, "Vis": 5198, "FLOAT": 22695, "\u2581commanded": 27288, "\u2581alg": 16814, "\u5fae": 30091, "BO": 5759, "\u2581scheme": 10208, "\u2581\u043a\u043e\u043c\u043f": 25603, "\u00e4ft": 21084, "\u2581Console": 19518, "\u2581chill": 21332, "\u2581guides": 25146, "\u2581\u0436\u0443\u0440": 25788, "Buf": 12398, "\u2581null": 1241, "backend": 19792, "\\}": 18800, "\u2581Vlad": 20551, "\u2581trem": 11248, "ERT": 4538, "reddit": 14254, "\u2581'@": 8319, "\u2581Ort": 14878, "ake": 621, "\u221e": 29725, "ism": 1443, "\u0442\u0432\u043e": 10111, "\u0437\u043d\u043e": 18380, "\u2581\u0440\u0438": 18937, "\u2581featured": 12526, "*-": 13725, "Functions": 23072, "late": 10020, "\u00b1": 29023, "\u2581wolf": 24100, "\u0671": 30732, "Contact": 18003, "\u2581shower": 13164, "\u2581UnityEngine": 14677, "\u2581(&": 17535, "\u2581tip": 7230, "\u2581barr": 20427, "\u2581Floren": 21659, "profile": 9247, "\u2581cars": 8300, "\u2581mundo": 18654, "\u2581killing": 10935, "\u2581According": 6586, "\u2581Reset": 21689, "users": 10247, "\u2581demonstrated": 17793, "\u2581Come": 12578, "\u2581Bear": 21425, "\u2581ambit": 25297, "\u2581best": 1489, "inch": 14168, "\u2581restart": 20733, "filled": 16683, "form": 674, "period": 14977, "orus": 18235, "9": 28774, "\u2581britann": 25206, "\u2581Anc": 23952, "\u2581ADD": 26827, "\u0442\u0438\u0435": 28198, "ession": 1893, "\u2581Install": 22609, "\u8be2": 29348, "\u6025": 31653, "ance": 617, "Max": 5010, "\u2581Liga": 19547, "\u045f": 28989, "\u2581photos": 8886, "brief": 17281, "aption": 3777, "roduction": 13632, "links": 17052, "\u2581embarrassed": 26100, "RECT": 13162, "\u2581Yu": 26424, "\u9664": 29153, "\u2581tam": 24914, "\u0442\u0441\u044f": 11626, "\u0c97": 31789, "Registry": 11494, "\u2581utiliz": 20673, "\u0570": 31378, "\u2581lapt": 16925, "\u2581parallel": 12635, "\u2581Tips": 26406, "\u2581gaze": 12438, "\u2581tunnel": 17377, "\u0442\u0438\u0438": 28430, "subsection": 7074, "enge": 5451, "\u2581lun": 17999, "ais": 1555, "\uc790": 29294, "\u2581replied": 8558, "\u2026.": 20541, "rim": 6413, "LABEL": 22592, "\u2581working": 2739, "nom": 11991, "\u0432\u0435\u0441\u0442": 15339, "ishop": 12019, ")->": 6952, "\u2581entertaining": 25161, "Structure": 20897, "\u2581bitter": 16493, "\u2581Dol": 15052, "qt": 23423, "\u2581\u00c0": 13193, "\u2581meant": 5035, "Great": 26315, "\u0432\u043e\u043c": 18653, "ot": 322, "\u2581OK": 12206, "proto": 5346, "isten": 13866, "ride": 2579, "Slice": 21202, "lyn": 12998, "\u2581nacional": 19136, "\u2581illness": 13214, "ips": 2430, "\u0440\u043e\u043d": 11197, "\u6b65": 29783, "\u2581orange": 14545, "BLOCK": 15768, "\u021bie": 19217, "ation": 352, "\u043c\u0430\u0442": 23918, "\u4e49": 29476, "\u2581glasses": 16014, "\u2581capit": 16809, "\u2581wondering": 12785, "Ray": 25109, "\u2581Kont": 28631, "\u9001": 29434, "\u2581scratch": 15147, "CTX": 26564, "\u0434\u043e\u0432\u0430": 11346, "\u65cb": 31027, "LE": 1180, "patch": 5559, "possible": 7285, "\u2581\u0440\u0430\u0439\u043e\u043d\u0435": 23838, "\u8aaa": 31566, "ite": 570, "+-": 22805, "igible": 13538, "\u30df": 30285, "idget": 3812, "\u043c\u0438\u0438": 18551, "\u9580": 31031, "\u2581whatever": 5681, "rome": 7421, "\u2581File": 6184, "\u2581warn": 8695, "\u2581lasted": 23353, "inge": 22503, "ancial": 14497, "apped": 3854, "\ub418": 29848, "\u2581but": 562, "\u2581notebook": 24587, "FREE": 28137, "\u2581fierce": 27118, "\u2581jud": 4612, "\u2581Access": 11559, "tu": 17512, "\u96f6": 30922, "\u2581Bulgar": 22390, "\u62a5": 29845, "empty": 4977, "Copyright": 20505, "\u2581Forest": 15777, "\u2581estate": 9490, "\u2581Studies": 15194, "\u2581helmet": 26371, "\u2581crisis": 10788, "void": 2828, "\u2581address": 2962, "\u2581never": 1484, "\u2581objet": 24339, "\u2581compute": 12881, "\u00c7": 29215, "\u0430\u043d\u0433\u043b": 18058, "\\[": 16927, "\u2581incl": 1171, "\u0941": 30034, "\u2581alle": 8477, "\u2581failing": 19923, "NOT": 7536, "prop": 5607, "management": 24700, "WW": 22240, "\u0434\u043e\u043d": 25612, "\u30f3": 29044, "pathy": 17113, "\u2581trop": 12090, "\uc99d": 30713, "precated": 18139, "bar": 1822, "\u2581Anne": 12042, "\u2581Author": 9216, "CL": 3100, "length": 2143, "\u2581Walk": 9863, "\u2581declared": 11804, "anted": 7266, "\u8fd0": 29798, "inale": 20971, "\u2581blinked": 27800, "\u2581Wal": 6418, "roe": 23034, "\u2581uk": 20028, "urations": 16963, "</s>": 2, "\u2581Gebiet": 26240, "PORT": 5021, "Cannot": 22193, "\ubb38": 29710, "\u2581reasons": 6494, "\u2581updated": 8457, "\u2581rail": 8314, "\u2581weekend": 9071, "\u2581hyp": 8178, "\u2581of": 302, "\u2581lifetime": 14927, "getItem": 26303, "WEBPACK": 16524, "vscale": 24713, "\u2581Express": 16722, "}}(\\": 20960, "Toggle": 20464, "\u2581arr": 4476, "\u2581theoretical": 18492, "\u535a": 30284, "DB": 3726, "\u2581upp": 21343, "hre": 27056, "st": 303, "\u2581Ukr": 11712, "\u2581Evans": 22103, "\u2581Robinson": 20191, "mand": 20478, "Mon": 7115, "Self": 13547, "USH": 23896, "\u2581sons": 15103, "oft": 24485, "\u2581negotiations": 24146, "\u2581uuid": 26886, "izz": 5769, "\u2581Un": 935, "\u2581buying": 9737, "\u2581Over": 5235, "week": 14049, "\u2581trains": 19770, "\u2581reception": 16844, "cil": 4872, "\u2581sits": 19050, "\u043d\u0438\u043a": 5647, "}_{\\": 6198, "nego": 12766, "\u2581drank": 22934, "\u2581\u0411\u0440\u0430": 25701, "\u8863": 31524, "\u2581incon": 17910, "\"": 28739, "\u666f": 29960, "\u2581Craft": 27310, "\u2581vo": 1776, "\u2581provinc": 12605, "\u009c": 30011, "\u2581Drupal": 22580, "\u2581hosting": 19117, "\u2581Lin": 6678, "\u2581Bronnen": 13228, "\u2581Swedish": 22677, "\u623f": 30376, "gamma": 3933, "GO": 11628, "\u2581sl\u00e4ktet": 12645, "settings": 6465, "\u2581\u0431\u0435": 8907, "engu": 19062, "Fill": 16946, "\u2581remains": 7520, "eding": 13917, "erman": 9358, "\u0446\u0438\u0458\u0430": 26895, "ATE": 3148, "touch": 20136, "RB": 24042, "\u2581Julian": 23566, "\u2581Darwin": 27213, "\u2581teas": 24789, "\u2581ALL": 17565, "\u2581bay": 17106, "\u2581stellar": 21523, "ustral": 16472, "\u2581cancelled": 24977, "yan": 8455, "\u800c": 29746, "\u5c04": 30554, "\u2581Async": 28671, "uar": 11042, "\u2581Dale": 25300, "Full": 10395, "\u0441\u043c\u043e": 27231, "\u2581Tony": 12040, "bably": 14472, "er": 263, "ony": 2557, "NU": 6034, "All": 2595, "colon": 19502, "\u66f4": 29250, "Alloc": 14072, "interface": 9326, "\u2581nit": 22292, "ott": 1562, "prit": 25450, "raid": 7370, "ju": 8948, "rade": 23992, "OBJECT": 17879, "\u2581flip": 19071, "\u2581Ant": 3821, "\u2581Alpha": 26910, "\u2581Cool": 21359, "\u2581controversy": 27959, "\u2581zich": 19517, "M": 28755, "\u2581demand": 5637, "\u2581writer": 6953, "\u2581r\u00f4le": 26651, "Mock": 8541, "\u2581Information": 9148, "\u03bf": 28958, "j\u0105": 12004, "\u2581PM": 9632, "FAIL": 12546, "\u2581Init": 6829, "\u6b7b": 30435, "\u2581forgot": 9400, "(*": 4756, "\u2581second": 1676, "\u2581nebo": 28494, "\u015f": 28987, "\u2581Bez": 22627, "\u2581him": 713, "<0x39>": 60, "rive": 6016, "ka": 2117, "\u2581page": 2884, "\u2581Bank": 7838, "\u2581Eliz": 10051, "Comb": 22865, "<0x38>": 59, "\u2581humor": 17276, "\u2581talking": 4434, "\u2581adventures": 28005, "\u0084": 30611, "fore": 994, "\u2581attracted": 18940, ")\");": 18490, "naire": 25008, "acja": 22218, "(:": 7306, "\u2581Am": 2740, "\u2581box": 3890, "\u2581desperately": 24254, "\u2581vivid": 24954, "\u2581commence": 25599, "\u2581approach": 4431, "\u2581range": 2819, "\u2581crowd": 8954, "\u2581Personal": 12860, "engers": 13899, "conde": 26506, "coming": 4343, "illed": 2636, "IZ": 12889, "imiter": 27328, "\u5f84": 29729, "ORM": 14851, "\u2581reli": 22889, "\u2581woods": 16748, "\u2581sounded": 13219, "\u2581Should": 10934, "getString": 14077, "quer": 10376, "Required": 10135, "\u2581Tak": 18754, "\u0e41": 29853, "bg": 11689, "////////": 2810, "original": 11802, "\u2581deposit": 17435, "oses": 14779, "aj\u0105c": 28565, "\u2581consisted": 24711, "\u2663": 30726, ")-\\": 26338, "amo": 14156, "\u2581agree": 5861, "\u0437\u0435": 8700, "\u2581likely": 3917, "\u2581\u043d\u043e\u0432": 23844, "pb": 11497, "Prom": 19967, "ournal": 7116, "\u2581secret": 5169, "\u2581zomb": 28437, "\u30c0": 29977, "emente": 16475, "\u2581Hind": 14526, "\u2581processed": 16244, "\u2581hadn": 6003, "\u2581Thanks": 8868, "Prop": 10155, "\u2581speak": 4085, "\u2581election": 7537, "orp": 16027, "\u00e1d": 11751, "\u2581evt": 25042, "\u2581Iowa": 20718, "ktion": 16591, "},{": 23897, "('": 857, "\u2581surn": 26937, "VI": 17102, "folio": 14132, "\u2581jako": 10128, "\u2581qualities": 20800, "\u2581fixed": 6321, "Marker": 19854, "\u2581adjacent": 20480, "amous": 22226, "\u00e4s": 11227, "\u2581Municipal": 25915, "Been": 27927, "\u2581\u0442\u0440\u0435": 12405, "Extra": 18982, "WISE": 26251, "\u2581January": 4624, "\u1ecb": 29765, "\u2581nouveau": 19341, "ya": 5157, "\u2581circles": 18100, "\u2581Tan": 17157, "\u522a": 31668, "\u2581Club": 5933, "\u0442\u044c": 2289, "\u2581service": 2372, "kes": 10774, "\u2581execut": 4546, "\u2581talked": 9409, "ery": 1193, "<0x96>": 153, "dn": 13984, "itting": 3257, "$}": 15489, "\u2581Message": 11350, "\u2581button": 6261, "\u2581scaling": 19903, "\u2581Until": 17703, "\u2581nation": 5878, "\u2581transfer": 5998, "\u2581portrait": 22087, "\u2581satisfies": 19546, "\u2581\u0425": 4724, "\u2581Febru": 4846, "\u2581ferm": 17310, "\u2581Bag": 17699, "\u2581well": 1162, "\u2581expend": 27040, "\u2581Francia": 19852, "\u2581Wat": 12037, "filename": 9639, "==": 585, "capacity": 26353, "Require": 22975, "idi": 10064, "\u2581computed": 16860, "Should": 15035, "\u2581question": 2996, "conscious": 13787, "\u7f8e": 29817, "raj": 15694, "\u2581Middle": 11373, "\u2581An": 1094, "\u2581sac": 6923, "\u2581feeling": 4622, "\u2581Mountain": 15228, "\u2581don": 949, "\u2581Tour": 7113, "insi": 11738, "\u2581executive": 12212, "\u03a9": 30146, "Desc": 8332, "t\u00f3": 9709, "azioni": 13919, "Ins": 17621, "ements": 4485, "\u2581bott": 7718, "RESS": 15645, "\u2581stre": 2811, "\u2581fam\u00edlia": 25338, "\u2581schon": 26980, "\u5f9e": 31517, "\u2581coast": 9437, "utat": 27426, "Organ": 21830, "\u2581MOD": 18471, "\u2581folks": 13157, "\u2581Conservative": 21753, "\u2581hasn": 11638, "\u010c": 28965, "\u2581ml": 16120, "\u2581pap": 12930, "\u2581jug": 11786, "\u2581resolve": 11024, "\u2581simultane": 15110, "\u2581along": 2267, "\u2581longitud": 28629, "signature": 22938, "img": 5422, "\u2581\u0441\u0430": 4468, "\u2581want": 947, "\u2581voltage": 24661, "\u2581grandfather": 19300, "\u786c": 31483, "geo": 27433, "\u2581landsc": 27308, "Nullable": 16112, "\u2581Char": 4348, "\u0544": 31863, "XR": 23576, "ften": 14073, "\u2581occasion": 8778, "\u30a1": 30000, "rea": 10458, "\u0251": 29813, "\u2581gene": 17198, "Equals": 5634, "\u2581useState": 17150, "\u2581tricks": 25556, "quot": 12792, "\u6362": 29479, "chk": 28566, "\u2581fights": 25186, "\u2581adding": 8833, "limited": 18376, "pared": 21997, "\u2581\u0434\u043e\u043c\u0430": 21807, "\u5c42": 29990, "Ip": 18917, "\u53e3": 29269, "\u2581tremendous": 23943, "ua": 3772, "\u0448": 28841, "\u2581structure": 4693, "\u0440\u043e\u0435": 28544, "\u2581Probably": 19969, "Tex": 17476, "\u2581bird": 7727, "\u2581\u043b\u043e": 18812, "\u2581Budd": 13772, "\u2581net": 2512, "\u2581presents": 15890, "TI": 3373, "\u2581febr": 24179, "sembled": 20221, "ittest": 27632, "\u2581respect": 3116, "\u2581mod": 968, "\ubabb": 31408, "\u0442\u0456\u0432": 27062, "\u2581equal": 6530, "\u05b5": 30794, "\u1eb1": 31642, "Loc": 2871, "IFI": 21438, "List": 1245, "\u2581FI": 16148, "\ud0dc": 30533, "\u2581teaching": 9432, "\u2581rund": 24187, "ussy": 23215, "\u2581Ty": 10084, "\u2581db": 7594, "\u2581Wald": 24050, "asper": 25177, "\u2581communes": 24657, "\u00fcd": 12484, "\u2581saves": 28507, "dig": 7845, "\u0921": 30792, "\u4eec": 29550,
[...]
